<pad>	0
<s>	0
</s>	0
<unk>	0
<0x00>	0
<0x01>	0
<0x02>	0
<0x03>	0
<0x04>	0
<0x05>	0
<0x06>	0
<0x07>	0
<0x08>	0
<0x09>	0
<0x0A>	0
<0x0B>	0
<0x0C>	0
<0x0D>	0
<0x0E>	0
<0x0F>	0
<0x10>	0
<0x11>	0
<0x12>	0
<0x13>	0
<0x14>	0
<0x15>	0
<0x16>	0
<0x17>	0
<0x18>	0
<0x19>	0
<0x1A>	0
<0x1B>	0
<0x1C>	0
<0x1D>	0
<0x1E>	0
<0x1F>	0
<0x20>	0
<0x21>	0
<0x22>	0
<0x23>	0
<0x24>	0
<0x25>	0
<0x26>	0
<0x27>	0
<0x28>	0
<0x29>	0
<0x2A>	0
<0x2B>	0
<0x2C>	0
<0x2D>	0
<0x2E>	0
<0x2F>	0
<0x30>	0
<0x31>	0
<0x32>	0
<0x33>	0
<0x34>	0
<0x35>	0
<0x36>	0
<0x37>	0
<0x38>	0
<0x39>	0
<0x3A>	0
<0x3B>	0
<0x3C>	0
<0x3D>	0
<0x3E>	0
<0x3F>	0
<0x40>	0
<0x41>	0
<0x42>	0
<0x43>	0
<0x44>	0
<0x45>	0
<0x46>	0
<0x47>	0
<0x48>	0
<0x49>	0
<0x4A>	0
<0x4B>	0
<0x4C>	0
<0x4D>	0
<0x4E>	0
<0x4F>	0
<0x50>	0
<0x51>	0
<0x52>	0
<0x53>	0
<0x54>	0
<0x55>	0
<0x56>	0
<0x57>	0
<0x58>	0
<0x59>	0
<0x5A>	0
<0x5B>	0
<0x5C>	0
<0x5D>	0
<0x5E>	0
<0x5F>	0
<0x60>	0
<0x61>	0
<0x62>	0
<0x63>	0
<0x64>	0
<0x65>	0
<0x66>	0
<0x67>	0
<0x68>	0
<0x69>	0
<0x6A>	0
<0x6B>	0
<0x6C>	0
<0x6D>	0
<0x6E>	0
<0x6F>	0
<0x70>	0
<0x71>	0
<0x72>	0
<0x73>	0
<0x74>	0
<0x75>	0
<0x76>	0
<0x77>	0
<0x78>	0
<0x79>	0
<0x7A>	0
<0x7B>	0
<0x7C>	0
<0x7D>	0
<0x7E>	0
<0x7F>	0
<0x80>	0
<0x81>	0
<0x82>	0
<0x83>	0
<0x84>	0
<0x85>	0
<0x86>	0
<0x87>	0
<0x88>	0
<0x89>	0
<0x8A>	0
<0x8B>	0
<0x8C>	0
<0x8D>	0
<0x8E>	0
<0x8F>	0
<0x90>	0
<0x91>	0
<0x92>	0
<0x93>	0
<0x94>	0
<0x95>	0
<0x96>	0
<0x97>	0
<0x98>	0
<0x99>	0
<0x9A>	0
<0x9B>	0
<0x9C>	0
<0x9D>	0
<0x9E>	0
<0x9F>	0
<0xA0>	0
<0xA1>	0
<0xA2>	0
<0xA3>	0
<0xA4>	0
<0xA5>	0
<0xA6>	0
<0xA7>	0
<0xA8>	0
<0xA9>	0
<0xAA>	0
<0xAB>	0
<0xAC>	0
<0xAD>	0
<0xAE>	0
<0xAF>	0
<0xB0>	0
<0xB1>	0
<0xB2>	0
<0xB3>	0
<0xB4>	0
<0xB5>	0
<0xB6>	0
<0xB7>	0
<0xB8>	0
<0xB9>	0
<0xBA>	0
<0xBB>	0
<0xBC>	0
<0xBD>	0
<0xBE>	0
<0xBF>	0
<0xC0>	0
<0xC1>	0
<0xC2>	0
<0xC3>	0
<0xC4>	0
<0xC5>	0
<0xC6>	0
<0xC7>	0
<0xC8>	0
<0xC9>	0
<0xCA>	0
<0xCB>	0
<0xCC>	0
<0xCD>	0
<0xCE>	0
<0xCF>	0
<0xD0>	0
<0xD1>	0
<0xD2>	0
<0xD3>	0
<0xD4>	0
<0xD5>	0
<0xD6>	0
<0xD7>	0
<0xD8>	0
<0xD9>	0
<0xDA>	0
<0xDB>	0
<0xDC>	0
<0xDD>	0
<0xDE>	0
<0xDF>	0
<0xE0>	0
<0xE1>	0
<0xE2>	0
<0xE3>	0
<0xE4>	0
<0xE5>	0
<0xE6>	0
<0xE7>	0
<0xE8>	0
<0xE9>	0
<0xEA>	0
<0xEB>	0
<0xEC>	0
<0xED>	0
<0xEE>	0
<0xEF>	0
<0xF0>	0
<0xF1>	0
<0xF2>	0
<0xF3>	0
<0xF4>	0
<0xF5>	0
<0xF6>	0
<0xF7>	0
<0xF8>	0
<0xF9>	0
<0xFA>	0
<0xFB>	0
<0xFC>	0
<0xFD>	0
<0xFE>	0
<0xFF>	0
▁t	-0
▁a	-1
in	-2
he	-3
re	-4
on	-5
er	-6
▁the	-7
▁s	-8
▁w	-9
or	-10
at	-11
nd	-12
ou	-13
▁c	-14
it	-15
es	-16
▁f	-17
is	-18
en	-19
ing	-20
▁b	-21
▁p	-22
▁o	-23
an	-24
ed	-25
al	-26
▁to	-27
▁m	-28
ar	-29
▁and	-30
▁in	-31
▁of	-32
▁d	-33
le	-34
ic	-35
as	-36
om	-37
▁h	-38
ion	-39
▁th	-40
il	-41
▁T	-42
ent	-43
▁l	-44
ve	-45
▁y	-46
ro	-47
st	-48
▁I	-49
▁e	-50
▁re	-51
▁n	-52
▁S	-53
▁g	-54
et	-55
ct	-56
▁A	-57
▁you	-58
▁C	-59
ly	-60
▁for	-61
id	-62
▁is	-63
ay	-64
▁on	-65
▁be	-66
ot	-67
ow	-68
ol	-69
am	-70
ac	-71
ig	-72
us	-73
el	-74
ad	-75
im	-76
▁M	-77
ver	-78
ith	-79
ut	-80
▁st	-81
ation	-82
ur	-83
▁P	-84
▁with	-85
▁that	-86
ir	-87
▁B	-88
▁W	-89
ch	-90
ce	-91
▁The	-92
▁it	-93
▁he	-94
ill	-95
ers	-96
▁al	-97
un	-98
ul	-99
▁an	-100
▁D	-101
▁H	-102
▁F	-103
ra	-104
out	-105
▁as	-106
▁pro	-107
▁wh	-108
ke	-109
▁are	-110
se	-111
ter	-112
▁we	-113
if	-114
oo	-115
ge	-116
▁ha	-117
our	-118
▁R	-119
pp	-120
ate	-121
ess	-122
▁at	-123
▁con	-124
▁com	-125
▁or	-126
▁L	-127
est	-128
her	-129
ore	-130
ment	-131
▁fr	-132
ab	-133
igh	-134
▁-	-135
▁ne	-136
▁N	-137
▁se	-138
ort	-139
▁G	-140
ld	-141
▁your	-142
▁E	-143
ist	-144
ri	-145
op	-146
▁(	-147
▁ex	-148
ity	-149
ure	-150
em	-151
▁O	-152
▁v	-153
qu	-154
ant	-155
art	-156
ive	-157
▁r	-158
ust	-159
▁was	-160
um	-161
▁have	-162
pe	-163
▁from	-164
▁this	-165
▁de	-166
oc	-167
▁sh	-168
th	-169
ain	-170
ies	-171
▁can	-172
up	-173
▁will	-174
▁ch	-175
and	-176
▁by	-177
os	-178
ight	-179
nt	-180
ie	-181
▁us	-182
ome	-183
all	-184
ard	-185
▁not	-186
ud	-187
res	-188
▁le	-189
▁J	-190
ast	-191
▁pl	-192
ost	-193
▁su	-194
▁ab	-195
iv	-196
ear	-197
▁wor	-198
ide	-199
ack	-200
ial	-201
rou	-202
▁all	-203
gh	-204
ell	-205
od	-206
ak	-207
te	-208
ine	-209
ould	-210
▁j	-211
ag	-212
red	-213
▁has	-214
..	-215
ice	-216
▁Th	-217
▁U	-218
age	-219
▁do	-220
▁k	-221
fe	-222
ook	-223
▁ad	-224
per	-225
▁In	-226
ip	-227
▁comp	-228
ake	-229
▁out	-230
ally	-231
ions	-232
▁up	-233
are	-234
▁but	-235
▁me	-236
▁whe	-237
pt	-238
ry	-239
▁our	-240
able	-241
▁“	-242
one	-243
ind	-244
og	-245
▁en	-246
▁more	-247
ail	-248
ite	-249
ther	-250
▁their	-251
▁Y	-252
ich	-253
ime	-254
very	-255
cc	-256
▁so	-257
▁cl	-258
ood	-259
ong	-260
ated	-261
▁K	-262
▁my	-263
▁sa	-264
for	-265
ame	-266
iz	-267
ber	-268
▁they	-269
▁St	-270
ace	-271
▁te	-272
▁one	-273
so	-274
ous	-275
ans	-276
act	-277
pl	-278
▁about	-279
ike	-280
du	-281
▁cont	-282
ase	-283
▁V	-284
▁im	-285
ick	-286
ia	-287
▁work	-288
▁inc	-289
ign	-290
ance	-291
▁un	-292
ire	-293
▁off	-294
ree	-295
▁who	-296
▁fe	-297
▁man	-298
ue	-299
ach	-300
▁tr	-301
reat	-302
ub	-303
▁It	-304
ll	-305
▁go	-306
ction	-307
ne	-308
▁new	-309
▁year	-310
▁app	-311
ult	-312
▁his	-313
ib	-314
ays	-315
▁"	-316
▁Ch	-317
erv	-318
▁We	-319
und	-320
▁res	-321
ap	-322
ass	-323
ark	-324
ep	-325
ff	-326
▁qu	-327
ations	-328
ary	-329
▁per	-330
▁also	-331
▁sp	-332
ile	-333
ove	-334
▁int	-335
▁which	-336
▁time	-337
ven	-338
form	-339
▁get	-340
ount	-341
own	-342
▁like	-343
▁some	-344
▁other	-345
ond	-346
ings	-347
ents	-348
vel	-349
▁any	-350
ical	-351
ence	-352
▁part	-353
av	-354
▁been	-355
▁dis	-356
▁This	-357
▁over	-358
ition	-359
ress	-360
ors	-361
▁rec	-362
▁them	-363
ck	-364
▁He	-365
▁ar	-366
▁sc	-367
ild	-368
▁pe	-369
ink	-370
port	-371
▁ag	-372
low	-373
▁ro	-374
▁her	-375
▁when	-376
ound	-377
ose	-378
▁kn	-379
mer	-380
int	-381
ord	-382
oy	-383
ish	-384
ob	-385
irst	-386
▁need	-387
▁said	-388
ens	-389
ough	-390
▁pr	-391
ov	-392
▁pre	-393
▁just	-394
ru	-395
▁spe	-396
wn	-397
▁acc	-398
▁what	-399
ren	-400
▁there	-401
▁if	-402
▁Re	-403
▁than	-404
▁its	-405
day	-406
vers	-407
▁would	-408
fter	-409
▁had	-410
ater	-411
ade	-412
ning	-413
lud	-414
▁were	-415
▁am	-416
lp	-417
▁–	-418
rough	-419
▁into	-420
old	-421
▁des	-422
ory	-423
ople	-424
itt	-425
ang	-426
▁tw	-427
▁how	-428
▁help	-429
use	-430
anc	-431
lic	-432
ool	-433
▁bec	-434
▁first	-435
▁add	-436
ks	-437
▁make	-438
▁comm	-439
amp	-440
ons	-441
...	-442
hed	-443
▁Wh	-444
▁prov	-445
▁look	-446
ft	-447
▁You	-448
▁people	-449
▁includ	-450
ual	-451
les	-452
▁bl	-453
▁serv	-454
gr	-455
ian	-456
▁col	-457
ments	-458
ful	-459
▁know	-460
▁produ	-461
iew	-462
ates	-463
▁Ne	-464
ious	-465
rent	-466
▁em	-467
tern	-468
▁she	-469
round	-470
▁every	-471
▁through	-472
▁may	-473
▁no	-474
ating	-475
▁only	-476
▁back	-477
pport	-478
▁most	-479
▁bu	-480
▁want	-481
ict	-482
ect	-483
▁As	-484
ices	-485
▁If	-486
▁well	-487
▁see	-488
we	-489
▁ph	-490
ities	-491
▁bet	-492
▁ind	-493
ise	-494
▁use	-495
▁two	-496
xt	-497
com	-498
ont	-499
▁act	-500
▁und	-501
iss	-502
iness	-503
lect	-504
▁after	-505
▁Se	-506
ause	-507
ife	-508
ph	-509
▁play	-510
fect	-511
▁|	-512
▁co	-513
oth	-514
▁&	-515
row	-516
ily	-517
enc	-518
ock	-519
▁exper	-520
ject	-521
▁cons	-522
hen	-523
urn	-524
▁fl	-525
▁years	-526
ert	-527
als	-528
▁tra	-529
▁these	-530
ting	-531
cial	-532
▁$	-533
aw	-534
▁Com	-535
▁An	-536
▁bus	-537
▁Un	-538
▁For	-539
▁stud	-540
ange	-541
▁good	-542
any	-543
bs	-544
vent	-545
ures	-546
aking	-547
ational	-548
ased	-549
▁ke	-550
ific	-551
▁now	-552
▁Pro	-553
▁under	-554
fore	-555
▁very	-556
▁many	-557
▁sm	-558
▁reg	-559
hing	-560
ward	-561
▁imp	-562
get	-563
oint	-564
▁way	-565
▁dif	-566
erson	-567
▁start	-568
ience	-569
ts	-570
pect	-571
▁wee	-572
▁fin	-573
▁De	-574
▁great	-575
▁And	-576
▁rel	-577
uring	-578
yst	-579
formation	-580
▁gu	-581
▁could	-582
ility	-583
▁rem	-584
ible	-585
▁dec	-586
oss	-587
uch	-588
▁even	-589
hip	-590
ty	-591
▁inv	-592
).	-593
ics	-594
▁loc	-595
rit	-596
ract	-597
▁sec	-598
▁day	-599
▁own	-600
cess	-601
velop	-602
▁where	-603
▁show	-604
ork	-605
ident	-606
elf	-607
alth	-608
hes	-609
its	-610
▁high	-611
▁find	-612
air	-613
ull	-614
nds	-615
▁don	-616
olog	-617
▁home	-618
▁ass	-619
▁should	-620
ath	-621
line	-622
▁here	-623
▁ent	-624
▁down	-625
▁best	-626
▁then	-627
lease	-628
▁Sh	-629
ble	-630
ied	-631
ular	-632
▁br	-633
▁Al	-634
▁right	-635
The	-636
arch	-637
chool	-638
||	-639
▁ac	-640
▁set	-641
ited	-642
▁car	-643
▁New	-644
▁read	-645
▁av	-646
▁mon	-647
▁min	-648
▁take	-649
gan	-650
erm	-651
▁business	-652
▁fam	-653
ix	-654
ner	-655
▁ins	-656
▁inst	-657
▁att	-658
▁design	-659
▁too	-660
ystem	-661
ys	-662
.”	-663
▁che	-664
▁much	-665
▁long	-666
io	-667
ative	-668
▁Be	-669
▁information	-670
▁Cl	-671
▁made	-672
▁last	-673
ollow	-674
ason	-675
other	-676
ues	-677
▁because	-678
omet	-679
arket	-680
gram	-681
▁product	-682
▁Fr	-683
ank	-684
ax	-685
),	-686
rib	-687
▁did	-688
▁call	-689
▁think	-690
▁before	-691
▁world	-692
▁team	-693
me	-694
atch	-695
▁cre	-696
ale	-697
oun	-698
▁again	-699
pen	-700
▁But	-701
▁sur	-702
pr	-703
▁vis	-704
ower	-705
ient	-706
az	-707
▁Ad	-708
▁art	-709
chn	-710
▁being	-711
way	-712
▁develop	-713
▁requ	-714
▁diffe	-715
ustom	-716
▁pres	-717
rest	-718
▁person	-719
▁Le	-720
ng	-721
ener	-722
▁such	-723
▁disc	-724
▁inte	-725
land	-726
▁mem	-727
▁him	-728
alk	-729
ug	-730
▁life	-731
arn	-732
▁support	-733
ving	-734
ouse	-735
unity	-736
ave	-737
ince	-738
▁does	-739
irect	-740
▁med	-741
▁Ar	-742
▁those	-743
▁while	-744
ins	-745
ash	-746
arm	-747
▁provid	-748
▁ra	-749
view	-750
ced	-751
ivers	-752
▁lead	-753
ros	-754
▁sim	-755
▁sk	-756
akes	-757
ality	-758
▁pol	-759
▁end	-760
▁used	-761
▁mod	-762
▁around	-763
▁cur	-764
ces	-765
ives	-766
ier	-767
ric	-768
▁free	-769
ually	-770
▁gr	-771
▁each	-772
ailable	-773
▁care	-774
ublic	-775
ional	-776
▁follow	-777
▁comple	-778
read	-779
ple	-780
led	-781
▁On	-782
▁det	-783
der	-784
▁ret	-785
▁love	-786
▁trans	-787
ize	-788
▁post	-789
▁There	-790
ather	-791
ages	-792
ines	-793
▁child	-794
▁bo	-795
ene	-796
▁system	-797
ars	-798
roup	-799
▁book	-800
▁eas	-801
▁ed	-802
▁num	-803
▁ser	-804
▁How	-805
oad	-806
▁Te	-807
imes	-808
,”	-809
▁really	-810
▁count	-811
ets	-812
▁str	-813
▁program	-814
ton	-815
▁All	-816
▁top	-817
▁run	-818
au	-819
▁custom	-820
▁cour	-821
▁del	-822
iet	-823
▁list	-824
▁So	-825
▁found	-826
ffect	-827
ness	-828
▁month	-829
▁place	-830
▁char	-831
▁form	-832
iel	-833
ah	-834
▁feel	-835
▁prof	-836
▁going	-837
ittle	-838
▁To	-839
ute	-840
▁available	-841
▁inter	-842
▁They	-843
man	-844
▁sign	-845
▁sub	-846
▁market	-847
ature	-848
▁cle	-849
ames	-850
▁still	-851
▁fun	-852
▁Pl	-853
▁somet	-854
ways	-855
▁Bl	-856
▁different	-857
▁gl	-858
cept	-859
▁both	-860
▁aut	-861
ved	-862
▁three	-863
▁few	-864
orn	-865
▁though	-866
▁health	-867
ital	-868
▁Ex	-869
ired	-870
▁pur	-871
▁lot	-872
▁happ	-873
ering	-874
▁adv	-875
▁rep	-876
▁report	-877
▁techn	-878
▁open	-879
ata	-880
meric	-881
ween	-882
▁week	-883
▁company	-884
▁keep	-885
▁plan	-886
▁Sc	-887
orth	-888
▁hand	-889
▁She	-890
bers	-891
ining	-892
tt	-893
iqu	-894
ants	-895
▁point	-896
▁game	-897
▁ext	-898
▁lar	-899
▁sol	-900
▁say	-901
ross	-902
▁Q	-903
▁exp	-904
▁fil	-905
atur	-906
▁frie	-907
▁exc	-908
ology	-909
▁import	-910
▁family	-911
▁same	-912
▁process	-913
▁ev	-914
▁including	-915
▁using	-916
oot	-917
▁met	-918
uc	-919
▁school	-920
▁little	-921
▁project	-922
ized	-923
▁What	-924
▁between	-925
."	-926
ution	-927
ott	-928
▁during	-929
att	-930
ik	-931
▁experience	-932
els	-933
ling	-934
gg	-935
▁state	-936
iving	-937
▁i	-938
▁next	-939
▁Col	-940
uss	-941
be	-942
oh	-943
▁real	-944
aint	-945
ody	-946
▁build	-947
ves	-948
▁service	-949
reen	-950
▁Tr	-951
less	-952
▁allow	-953
ms	-954
▁things	-955
▁come	-956
ished	-957
over	-958
▁water	-959
▁opt	-960
▁contin	-961
▁Americ	-962
thing	-963
▁dri	-964
▁Ph	-965
▁var	-966
ists	-967
uck	-968
ern	-969
ever	-970
ield	-971
▁cent	-972
arly	-973
▁small	-974
▁rece	-975
rand	-976
▁rest	-977
▁organ	-978
self	-979
▁cr	-980
▁appro	-981
▁big	-982
ex	-983
▁always	-984
▁ref	-985
▁Ind	-986
ger	-987
▁mus	-988
▁better	-989
▁sure	-990
▁bel	-991
▁With	-992
▁interest	-993
aut	-994
▁win	-995
illion	-996
▁full	-997
▁poss	-998
▁pass	-999
▁put	-1000
▁online	-1001
▁iss	-1002
▁pat	-1003
▁pri	-1004
gy	-1005
▁ty	-1006
cent	-1007
ined	-1008
▁When	-1009
ware	-1010
▁gener	-1011
▁since	-1012
▁result	-1013
▁try	-1014
▁ve	-1015
▁direct	-1016
▁quest	-1017
iversity	-1018
▁mov	-1019
▁Or	-1020
▁stand	-1021
▁partic	-1022
▁days	-1023
ploy	-1024
▁group	-1025
ps	-1026
▁head	-1027
▁perform	-1028
▁pay	-1029
▁val	-1030
▁ide	-1031
▁class	-1032
▁special	-1033
▁today	-1034
br	-1035
▁something	-1036
▁Chr	-1037
▁second	-1038
▁tri	-1039
ours	-1040
▁ann	-1041
▁sl	-1042
▁services	-1043
▁provide	-1044
▁phot	-1045
ients	-1046
ared	-1047
▁Con	-1048
▁resp	-1049
▁Our	-1050
joy	-1051
ccess	-1052
▁Is	-1053
ok	-1054
▁conf	-1055
▁dist	-1056
▁hard	-1057
▁without	-1058
pping	-1059
▁Z	-1060
▁def	-1061
con	-1062
work	-1063
▁cor	-1064
▁bro	-1065
▁Sp	-1066
▁number	-1067
▁another	-1068
▁must	-1069
ision	-1070
▁vide	-1071
oney	-1072
ER	-1073
stand	-1074
▁current	-1075
▁give	-1076
,"	-1077
▁wom	-1078
outh	-1079
oor	-1080
▁old	-1081
▁able	-1082
aj	-1083
ically	-1084
iver	-1085
▁important	-1086
ately	-1087
ards	-1088
▁webs	-1089
ior	-1090
▁—	-1091
▁access	-1092
ope	-1093
▁soc	-1094
▁cost	-1095
ium	-1096
▁grow	-1097
▁fact	-1098
▁meet	-1099
▁At	-1100
▁invest	-1101
▁got	-1102
▁area	-1103
ruct	-1104
▁Cent	-1105
▁wr	-1106
raph	-1107
▁public	-1108
ral	-1109
▁bre	-1110
▁Res	-1111
ote	-1112
▁visit	-1113
▁light	-1114
▁proble	-1115
ered	-1116
▁incre	-1117
▁working	-1118
▁US	-1119
ense	-1120
ems	-1121
ample	-1122
▁ob	-1123
▁unt	-1124
ann	-1125
pped	-1126
ats	-1127
▁data	-1128
rence	-1129
▁proper	-1130
▁never	-1131
▁level	-1132
▁might	-1133
rol	-1134
▁ask	-1135
▁looking	-1136
▁expl	-1137
▁sal	-1138
ember	-1139
inal	-1140
▁order	-1141
ffic	-1142
▁No	-1143
▁fac	-1144
▁effect	-1145
ential	-1146
▁event	-1147
ley	-1148
▁food	-1149
▁students	-1150
▁local	-1151
ery	-1152
▁four	-1153
▁rese	-1154
▁Man	-1155
▁That	-1156
▁Comm	-1157
▁let	-1158
ird	-1159
▁eng	-1160
eng	-1161
ww	-1162
ency	-1163
▁profess	-1164
ission	-1165
▁offer	-1166
▁inf	-1167
▁Pr	-1168
▁enjoy	-1169
▁check	-1170
▁season	-1171
▁site	-1172
▁spec	-1173
▁addition	-1174
ertain	-1175
▁children	-1176
▁within	-1177
▁test	-1178
▁pos	-1179
▁My	-1180
▁view	-1181
▁making	-1182
▁room	-1183
▁oper	-1184
ording	-1185
lection	-1186
▁sit	-1187
▁prom	-1188
▁power	-1189
gin	-1190
ories	-1191
▁ca	-1192
here	-1193
▁night	-1194
ently	-1195
ney	-1196
▁past	-1197
▁products	-1198
▁community	-1199
sh	-1200
▁pop	-1201
▁Mar	-1202
▁'	-1203
▁until	-1204
▁against	-1205
▁el	-1206
▁sing	-1207
let	-1208
tend	-1209
ream	-1210
ases	-1211
utes	-1212
▁less	-1213
ids	-1214
ains	-1215
▁Br	-1216
▁est	-1217
▁conc	-1218
agement	-1219
med	-1220
ieve	-1221
iron	-1222
ina	-1223
ised	-1224
▁job	-1225
▁May	-1226
ator	-1227
▁email	-1228
▁intern	-1229
to	-1230
▁quality	-1231
▁indust	-1232
ivid	-1233
ged	-1234
ills	-1235
▁impro	-1236
load	-1237
▁website	-1238
▁law	-1239
▁prote	-1240
▁turn	-1241
ode	-1242
orm	-1243
enn	-1244
urs	-1245
▁equ	-1246
ified	-1247
▁away	-1248
▁App	-1249
irl	-1250
icle	-1251
We	-1252
IN	-1253
▁creat	-1254
▁University	-1255
▁contact	-1256
bo	-1257
▁toget	-1258
▁Fe	-1259
▁together	-1260
aring	-1261
co	-1262
istr	-1263
ique	-1264
pend	-1265
▁learn	-1266
▁dr	-1267
▁supp	-1268
▁Can	-1269
▁leg	-1270
ury	-1271
▁pract	-1272
▁success	-1273
▁expect	-1274
▁complete	-1275
iday	-1276
▁Co	-1277
▁applic	-1278
▁include	-1279
por	-1280
▁needs	-1281
ocus	-1282
iety	-1283
atter	-1284
▁Christ	-1285
▁Cont	-1286
▁Fl	-1287
▁.	-1288
ider	-1289
▁air	-1290
▁One	-1291
▁detail	-1292
▁la	-1293
▁Car	-1294
ret	-1295
▁easy	-1296
▁large	-1297
▁news	-1298
▁says	-1299
▁course	-1300
ability	-1301
▁along	-1302
oci	-1303
▁change	-1304
arent	-1305
aster	-1306
▁employ	-1307
vern	-1308
▁offic	-1309
room	-1310
▁present	-1311
▁name	-1312
▁chang	-1313
ism	-1314
hor	-1315
▁beaut	-1316
yle	-1317
▁Am	-1318
ump	-1319
▁Me	-1320
part	-1321
ym	-1322
osed	-1323
atures	-1324
▁activ	-1325
▁cap	-1326
ries	-1327
ec	-1328
▁members	-1329
enef	-1330
▁video	-1331
lish	-1332
ising	-1333
iting	-1334
▁money	-1335
min	-1336
▁Ste	-1337
▁buy	-1338
the	-1339
▁times	-1340
rap	-1341
augh	-1342
▁bas	-1343
une	-1344
ify	-1345
▁house	-1346
▁beh	-1347
▁Eng	-1348
ane	-1349
▁fav	-1350
▁music	-1351
▁pa	-1352
▁opport	-1353
cl	-1354
itions	-1355
▁sw	-1356
▁dem	-1357
▁These	-1358
ift	-1359
▁/	-1360
Th	-1361
▁why	-1362
side	-1363
ably	-1364
by	-1365
▁hist	-1366
nect	-1367
▁case	-1368
▁En	-1369
▁ce	-1370
▁dra	-1371
▁cond	-1372
▁please	-1373
rie	-1374
veral	-1375
ots	-1376
ron	-1377
▁treat	-1378
▁perfect	-1379
pecial	-1380
mber	-1381
ready	-1382
aff	-1383
▁live	-1384
▁govern	-1385
▁thing	-1386
ten	-1387
▁Do	-1388
ention	-1389
fort	-1390
aterial	-1391
▁short	-1392
▁create	-1393
▁following	-1394
▁Che	-1395
▁story	-1396
book	-1397
▁dev	-1398
ization	-1399
▁account	-1400
▁left	-1401
viron	-1402
!!	-1403
▁million	-1404
ived	-1405
▁const	-1406
son	-1407
ON	-1408
▁understand	-1409
▁below	-1410
▁hum	-1411
▁side	-1412
▁review	-1413
▁having	-1414
ored	-1415
alf	-1416
ohn	-1417
itive	-1418
▁trad	-1419
▁After	-1420
▁hot	-1421
ows	-1422
▁Your	-1423
sc	-1424
▁page	-1425
▁makes	-1426
▁based	-1427
of	-1428
▁focus	-1429
▁word	-1430
▁move	-1431
▁Med	-1432
▁research	-1433
RE	-1434
▁across	-1435
▁camp	-1436
▁writ	-1437
▁kind	-1438
AT	-1439
rop	-1440
▁line	-1441
ienc	-1442
▁personal	-1443
▁link	-1444
▁ever	-1445
ances	-1446
▁cou	-1447
▁getting	-1448
uly	-1449
▁possible	-1450
▁mar	-1451
▁comes	-1452
▁pot	-1453
▁already	-1454
vious	-1455
▁benef	-1456
uture	-1457
▁educ	-1458
ividual	-1459
ajor	-1460
ured	-1461
osp	-1462
▁elect	-1463
▁record	-1464
▁country	-1465
uper	-1466
▁become	-1467
▁soft	-1468
▁share	-1469
▁friends	-1470
ination	-1471
aces	-1472
oice	-1473
▁often	-1474
▁several	-1475
ush	-1476
▁done	-1477
▁bit	-1478
ister	-1479
orts	-1480
iven	-1481
ee	-1482
▁Ass	-1483
▁Count	-1484
▁es	-1485
▁pack	-1486
▁social	-1487
wards	-1488
▁fund	-1489
duct	-1490
▁enough	-1491
ead	-1492
iam	-1493
conom	-1494
▁quick	-1495
▁tre	-1496
▁mil	-1497
▁minutes	-1498
ones	-1499
▁Please	-1500
inc	-1501
▁bring	-1502
uff	-1503
▁net	-1504
▁women	-1505
▁Inst	-1506
fer	-1507
▁Comp	-1508
▁vers	-1509
unch	-1510
▁tell	-1511
▁development	-1512
▁hours	-1513
app	-1514
▁body	-1515
▁John	-1516
▁talk	-1517
arl	-1518
▁Serv	-1519
ips	-1520
ides	-1521
▁mult	-1522
oose	-1523
vironment	-1524
iful	-1525
▁cut	-1526
▁Des	-1527
▁purch	-1528
▁return	-1529
aim	-1530
▁city	-1531
mend	-1532
▁:	-1533
▁men	-1534
ape	-1535
ners	-1536
▁deal	-1537
reet	-1538
oon	-1539
▁Wor	-1540
▁X	-1541
▁Intern	-1542
AN	-1543
▁won	-1544
▁individual	-1545
▁sum	-1546
▁young	-1547
ograph	-1548
▁compet	-1549
ted	-1550
uro	-1551
▁...	-1552
▁ens	-1553
ST	-1554
▁months	-1555
▁hold	-1556
▁called	-1557
▁Here	-1558
▁didn	-1559
ateg	-1560
▁mom	-1561
▁started	-1562
idd	-1563
▁Tw	-1564
▁others	-1565
▁Rep	-1566
yn	-1567
▁material	-1568
▁jo	-1569
▁term	-1570
err	-1571
ights	-1572
▁non	-1573
utions	-1574
▁land	-1575
▁orig	-1576
▁industry	-1577
nder	-1578
ript	-1579
▁Gu	-1580
▁clean	-1581
▁rele	-1582
ober	-1583
▁American	-1584
.,	-1585
ai	-1586
▁However	-1587
▁future	-1588
▁City	-1589
▁far	-1590
▁pie	-1591
▁doing	-1592
arr	-1593
ched	-1594
lished	-1595
▁major	-1596
▁commun	-1597
ained	-1598
▁Gr	-1599
▁space	-1600
▁control	-1601
ource	-1602
▁wa	-1603
ball	-1604
ges	-1605
fact	-1606
urity	-1607
▁store	-1608
▁cover	-1609
▁Ab	-1610
anies	-1611
▁low	-1612
lement	-1613
▁occ	-1614
acy	-1615
▁Dr	-1616
▁Not	-1617
ference	-1618
ford	-1619
▁means	-1620
AR	-1621
▁games	-1622
lege	-1623
▁mind	-1624
▁yet	-1625
▁came	-1626
▁offers	-1627
▁blog	-1628
▁chall	-1629
oll	-1630
▁percent	-1631
▁took	-1632
▁five	-1633
▁doesn	-1634
▁Min	-1635
▁invol	-1636
▁lim	-1637
▁comb	-1638
sel	-1639
▁*	-1640
▁fore	-1641
▁least	-1642
ilities	-1643
▁strong	-1644
▁State	-1645
▁features	-1646
▁price	-1647
ches	-1648
▁God	-1649
▁customers	-1650
▁step	-1651
▁Ke	-1652
▁More	-1653
▁heart	-1654
▁specific	-1655
urther	-1656
most	-1657
▁once	-1658
▁main	-1659
▁pict	-1660
▁range	-1661
▁School	-1662
ilt	-1663
▁key	-1664
▁require	-1665
pos	-1666
sw	-1667
▁close	-1668
ither	-1669
▁Now	-1670
▁upd	-1671
▁mean	-1672
▁ey	-1673
▁government	-1674
▁stay	-1675
▁early	-1676
▁Bo	-1677
yl	-1678
af	-1679
▁series	-1680
▁tool	-1681
▁discuss	-1682
▁tem	-1683
▁Bro	-1684
illed	-1685
▁hig	-1686
ources	-1687
▁priv	-1688
▁charact	-1689
▁ste	-1690
▁Jan	-1691
▁walk	-1692
▁Im	-1693
▁Ed	-1694
▁went	-1695
atural	-1696
▁United	-1697
▁announ	-1698
atic	-1699
▁technology	-1700
▁install	-1701
▁typ	-1702
▁ago	-1703
▁told	-1704
▁beautiful	-1705
pro	-1706
▁Pe	-1707
//	-1708
aken	-1709
ging	-1710
▁thought	-1711
▁hope	-1712
▁redu	-1713
▁pick	-1714
It	-1715
▁appear	-1716
▁happen	-1717
▁begin	-1718
ancial	-1719
resh	-1720
org	-1721
resent	-1722
▁anal	-1723
▁By	-1724
rew	-1725
▁break	-1726
isk	-1727
anks	-1728
irm	-1729
ille	-1730
itor	-1731
▁questions	-1732
▁Pre	-1733
come	-1734
▁wind	-1735
▁Em	-1736
▁Qu	-1737
ourn	-1738
▁x	-1739
▁prep	-1740
▁certain	-1741
▁--	-1742
://	-1743
▁Add	-1744
▁everything	-1745
OR	-1746
hers	-1747
▁content	-1748
ians	-1749
ony	-1750
▁travel	-1751
▁sn	-1752
▁favor	-1753
▁field	-1754
▁companies	-1755
isc	-1756
▁Cal	-1757
gle	-1758
▁added	-1759
▁single	-1760
▁known	-1761
irt	-1762
▁recom	-1763
▁Park	-1764
▁media	-1765
aps	-1766
▁building	-1767
▁friend	-1768
▁actually	-1769
▁enc	-1770
arning	-1771
▁environment	-1772
de	-1773
aur	-1774
▁manag	-1775
▁search	-1776
ief	-1777
eral	-1778
play	-1779
▁tax	-1780
▁ener	-1781
raft	-1782
▁tot	-1783
▁problem	-1784
▁vol	-1785
▁press	-1786
▁address	-1787
▁mess	-1788
▁study	-1789
▁later	-1790
cle	-1791
▁York	-1792
▁girl	-1793
▁Sm	-1794
ests	-1795
▁works	-1796
ino	-1797
ibr	-1798
▁connect	-1799
▁improve	-1800
ew	-1801
▁sound	-1802
gest	-1803
▁taking	-1804
icy	-1805
ster	-1806
ided	-1807
ural	-1808
▁South	-1809
▁Su	-1810
lebr	-1811
year	-1812
▁pub	-1813
▁maint	-1814
▁watch	-1815
abor	-1816
▁ident	-1817
▁training	-1818
▁North	-1819
▁film	-1820
▁track	-1821
▁Mc	-1822
back	-1823
▁staff	-1824
ental	-1825
▁card	-1826
ensive	-1827
wh	-1828
▁wond	-1829
nes	-1830
ocu	-1831
ama	-1832
▁Just	-1833
▁results	-1834
▁professional	-1835
atest	-1836
▁someone	-1837
ES	-1838
▁issues	-1839
▁Gl	-1840
▁seen	-1841
▁half	-1842
▁official	-1843
▁While	-1844
▁Euro	-1845
▁front	-1846
▁econom	-1847
▁host	-1848
▁provides	-1849
▁face	-1850
▁unique	-1851
▁Per	-1852
fully	-1853
▁near	-1854
▁web	-1855
opy	-1856
urch	-1857
▁National	-1858
▁miss	-1859
▁particular	-1860
AL	-1861
▁County	-1862
▁cook	-1863
▁Acc	-1864
▁Some	-1865
▁sell	-1866
▁relations	-1867
▁everyone	-1868
▁due	-1869
▁port	-1870
▁dig	-1871
rain	-1872
▁Center	-1873
▁Aust	-1874
▁recommend	-1875
▁Don	-1876
▁cred	-1877
ctor	-1878
▁respons	-1879
▁z	-1880
▁office	-1881
ued	-1882
▁Inc	-1883
hod	-1884
go	-1885
▁simple	-1886
▁Part	-1887
cer	-1888
lex	-1889
▁click	-1890
▁Oct	-1891
▁aud	-1892
▁age	-1893
▁ant	-1894
ibility	-1895
▁whole	-1896
itted	-1897
time	-1898
roll	-1899
▁management	-1900
not	-1901
▁particip	-1902
pecially	-1903
▁mot	-1904
▁mor	-1905
▁Apr	-1906
▁oil	-1907
iod	-1908
▁Pres	-1909
▁ess	-1910
asing	-1911
obile	-1912
▁Pol	-1913
▁fall	-1914
▁areas	-1915
▁bar	-1916
▁performance	-1917
pper	-1918
▁author	-1919
▁World	-1920
▁given	-1921
place	-1922
ply	-1923
imate	-1924
icult	-1925
▁Dep	-1926
nding	-1927
▁above	-1928
▁bed	-1929
umb	-1930
ites	-1931
ators	-1932
▁eff	-1933
▁reason	-1934
In	-1935
aining	-1936
▁Will	-1937
▁among	-1938
▁events	-1939
ops	-1940
ables	-1941
▁history	-1942
▁Stud	-1943
▁experienc	-1944
ask	-1945
▁protect	-1946
EN	-1947
▁Post	-1948
▁energy	-1949
▁Sec	-1950
▁believe	-1951
▁select	-1952
omes	-1953
▁assist	-1954
▁black	-1955
▁htt	-1956
ison	-1957
ogn	-1958
▁foot	-1959
▁Reg	-1960
▁print	-1961
▁details	-1962
▁amount	-1963
ety	-1964
ili	-1965
ED	-1966
▁six	-1967
▁size	-1968
obal	-1969
▁further	-1970
ledge	-1971
▁sex	-1972
▁From	-1973
crib	-1974
▁High	-1975
▁prob	-1976
idence	-1977
▁Friday	-1978
▁log	-1979
ulation	-1980
▁pain	-1981
▁points	-1982
▁designed	-1983
▁includes	-1984
▁color	-1985
▁Aug	-1986
astic	-1987
vert	-1988
▁cult	-1989
▁red	-1990
oved	-1991
ands	-1992
▁mag	-1993
▁property	-1994
▁parent	-1995
ufact	-1996
▁Day	-1997
▁soon	-1998
▁continue	-1999
AS	-2000
▁et	-2001
▁coming	-2002
▁Mr	-2003
ruction	-2004
▁anything	-2005
▁Europe	-2006
▁feature	-2007
▁text	-2008
ung	-2009
▁various	-2010
▁question	-2011
▁value	-2012
▁latest	-2013
nov	-2014
itch	-2015
urance	-2016
▁phys	-2017
ze	-2018
▁Bar	-2019
rodu	-2020
▁March	-2021
itional	-2022
▁living	-2023
▁popular	-2024
▁according	-2025
my	-2026
▁fre	-2027
aily	-2028
▁forward	-2029
▁phone	-2030
uation	-2031
▁pret	-2032
▁Ge	-2033
▁type	-2034
aturday	-2035
ouch	-2036
▁whether	-2037
IT	-2038
cript	-2039
ole	-2040
▁consider	-2041
edd	-2042
itc	-2043
▁entire	-2044
▁idea	-2045
IC	-2046
though	-2047
▁claim	-2048
▁weeks	-2049
▁Sept	-2050
▁white	-2051
▁brand	-2052
▁June	-2053
▁celebr	-2054
▁dou	-2055
▁deb	-2056
▁El	-2057
aching	-2058
▁diff	-2059
▁Bu	-2060
▁needed	-2061
▁par	-2062
▁opportunity	-2063
elt	-2064
▁Sund	-2065
▁taken	-2066
▁consum	-2067
▁comput	-2068
itter	-2069
selves	-2070
new	-2071
▁docu	-2072
▁potential	-2073
▁wide	-2074
▁third	-2075
▁receive	-2076
▁safe	-2077
▁date	-2078
▁bad	-2079
▁required	-2080
ffe	-2081
▁Us	-2082
amer	-2083
This	-2084
ises	-2085
▁ready	-2086
▁inj	-2087
▁West	-2088
▁Off	-2089
AC	-2090
ilar	-2091
head	-2092
▁April	-2093
▁sent	-2094
▁relationship	-2095
▁sugg	-2096
▁ensure	-2097
▁almost	-2098
ival	-2099
▁currently	-2100
▁,	-2101
▁example	-2102
▁kids	-2103
▁pretty	-2104
▁financial	-2105
▁meas	-2106
▁common	-2107
ees	-2108
▁comfort	-2109
▁extra	-2110
val	-2111
▁skin	-2112
ires	-2113
▁quite	-2114
▁ach	-2115
▁fire	-2116
▁Tra	-2117
▁period	-2118
▁human	-2119
▁Art	-2120
▁Read	-2121
▁ways	-2122
▁trying	-2123
▁final	-2124
▁especially	-2125
▁yourself	-2126
▁Jo	-2127
▁road	-2128
▁park	-2129
▁Cor	-2130
▁natural	-2131
irc	-2132
▁sho	-2133
▁veh	-2134
ek	-2135
▁options	-2136
uary	-2137
▁paper	-2138
▁His	-2139
▁Health	-2140
▁items	-2141
▁style	-2142
▁coll	-2143
▁box	-2144
ring	-2145
▁answ	-2146
....	-2147
ese	-2148
used	-2149
▁either	-2150
▁member	-2151
▁Saturday	-2152
onday	-2153
▁provided	-2154
ana	-2155
ively	-2156
itting	-2157
▁hon	-2158
▁swe	-2159
▁happy	-2160
▁engine	-2161
▁crit	-2162
▁summer	-2163
▁choose	-2164
▁held	-2165
▁throughout	-2166
▁via	-2167
▁wanted	-2168
▁fit	-2169
▁self	-2170
▁attend	-2171
▁recent	-2172
▁dam	-2173
▁clients	-2174
▁flow	-2175
ada	-2176
▁download	-2177
ication	-2178
▁July	-2179
▁Fin	-2180
aced	-2181
arter	-2182
▁impact	-2183
▁Aut	-2184
▁users	-2185
▁Pa	-2186
▁Af	-2187
▁previous	-2188
▁tit	-2189
▁created	-2190
▁issue	-2191
azing	-2192
▁takes	-2193
▁Dav	-2194
▁behind	-2195
▁recently	-2196
▁TH	-2197
ler	-2198
▁version	-2199
gress	-2200
icro	-2201
▁sales	-2202
▁couple	-2203
▁seem	-2204
oogle	-2205
angu	-2206
ux	-2207
▁init	-2208
▁super	-2209
▁song	-2210
▁software	-2211
▁running	-2212
ried	-2213
cast	-2214
▁education	-2215
ams	-2216
IS	-2217
▁bott	-2218
▁Get	-2219
verage	-2220
▁isn	-2221
▁clear	-2222
▁collect	-2223
ume	-2224
▁hol	-2225
apt	-2226
▁network	-2227
ox	-2228
ades	-2229
▁received	-2230
▁Feb	-2231
▁role	-2232
▁insp	-2233
▁problems	-2234
▁represent	-2235
oura	-2236
▁reading	-2237
oid	-2238
▁method	-2239
▁table	-2240
eth	-2241
▁Val	-2242
uge	-2243
itten	-2244
anced	-2245
▁players	-2246
cy	-2247
▁Direct	-2248
earch	-2249
▁shows	-2250
▁likely	-2251
where	-2252
▁di	-2253
▁po	-2254
▁Int	-2255
atform	-2256
▁Sw	-2257
▁favorite	-2258
▁signific	-2259
▁increase	-2260
▁nice	-2261
▁States	-2262
▁regular	-2263
▁else	-2264
▁accom	-2265
▁pan	-2266
▁security	-2267
ification	-2268
par	-2269
▁stri	-2270
reme	-2271
▁difficult	-2272
▁Mon	-2273
oud	-2274
St	-2275
▁action	-2276
idge	-2277
▁dog	-2278
▁party	-2279
▁lo	-2280
OU	-2281
▁Sunday	-2282
▁Face	-2283
▁ele	-2284
▁Monday	-2285
▁fast	-2286
▁simply	-2287
▁customer	-2288
▁skills	-2289
▁fresh	-2290
▁article	-2291
▁cool	-2292
▁sle	-2293
▁probably	-2294
▁writing	-2295
▁outside	-2296
▁position	-2297
▁cup	-2298
overed	-2299
bor	-2300
▁original	-2301
icles	-2302
arth	-2303
▁Her	-2304
aving	-2305
mit	-2306
▁asked	-2307
▁Up	-2308
.)	-2309
aging	-2310
▁necess	-2311
▁morning	-2312
--	-2313
▁House	-2314
▁wonder	-2315
li	-2316
ID	-2317
▁inside	-2318
aby	-2319
▁model	-2320
istration	-2321
▁goal	-2322
▁manufact	-2323
ham	-2324
▁President	-2325
▁leave	-2326
ounc	-2327
▁ground	-2328
▁systems	-2329
icated	-2330
eter	-2331
uit	-2332
▁anim	-2333
▁ful	-2334
▁application	-2335
▁Associ	-2336
▁learning	-2337
▁Black	-2338
▁Act	-2339
aker	-2340
▁UK	-2341
▁tour	-2342
▁risk	-2343
▁release	-2344
▁Bus	-2345
based	-2346
▁lives	-2347
▁projects	-2348
▁knowledge	-2349
▁stop	-2350
▁contrib	-2351
▁located	-2352
▁changes	-2353
▁Are	-2354
▁however	-2355
▁polit	-2356
medi	-2357
▁mix	-2358
face	-2359
▁exist	-2360
▁board	-2361
▁medical	-2362
right	-2363
▁Mich	-2364
▁additional	-2365
name	-2366
▁Red	-2367
▁recogn	-2368
▁stra	-2369
▁hit	-2370
▁Soc	-2371
▁career	-2372
▁abs	-2373
▁Free	-2374
▁anyone	-2375
▁sat	-2376
▁etc	-2377
lus	-2378
▁private	-2379
adem	-2380
ague	-2381
iple	-2382
▁Austral	-2383
▁activities	-2384
▁treatment	-2385
▁total	-2386
▁fail	-2387
▁TV	-2388
amed	-2389
▁town	-2390
artment	-2391
▁cal	-2392
▁America	-2393
▁former	-2394
▁September	-2395
▁base	-2396
▁accept	-2397
aign	-2398
▁ple	-2399
▁matter	-2400
hel	-2401
hib	-2402
▁mark	-2403
▁contract	-2404
arget	-2405
▁included	-2406
ession	-2407
ming	-2408
▁saf	-2409
ules	-2410
OT	-2411
▁Of	-2412
ecut	-2413
iol	-2414
▁mach	-2415
▁words	-2416
▁meeting	-2417
▁Sal	-2418
▁growth	-2419
izing	-2420
wood	-2421
▁hair	-2422
▁autom	-2423
▁playing	-2424
▁books	-2425
ipment	-2426
ovember	-2427
▁significant	-2428
▁leaders	-2429
▁October	-2430
▁Ser	-2431
oring	-2432
▁match	-2433
empt	-2434
mon	-2435
▁ball	-2436
▁worth	-2437
ny	-2438
ky	-2439
irth	-2440
▁longer	-2441
▁News	-2442
▁drive	-2443
▁character	-2444
▁looks	-2445
▁round	-2446
rug	-2447
ester	-2448
▁variety	-2449
▁Wed	-2450
ground	-2451
▁production	-2452
▁hy	-2453
▁practice	-2454
▁concern	-2455
rict	-2456
▁squ	-2457
▁January	-2458
▁August	-2459
▁First	-2460
reg	-2461
kend	-2462
cing	-2463
ursday	-2464
▁defin	-2465
ude	-2466
▁tal	-2467
▁Every	-2468
▁late	-2469
▁sun	-2470
▁lay	-2471
▁wall	-2472
▁exam	-2473
airs	-2474
▁San	-2475
mercial	-2476
▁suggest	-2477
ha	-2478
che	-2479
adu	-2480
▁Har	-2481
na	-2482
▁function	-2483
pm	-2484
▁worked	-2485
uesday	-2486
iff	-2487
▁determ	-2488
elcome	-2489
ville	-2490
▁fig	-2491
▁Let	-2492
▁Ag	-2493
▁death	-2494
ipe	-2495
iddle	-2496
▁programs	-2497
▁associ	-2498
▁cand	-2499
rect	-2500
▁international	-2501
▁Google	-2502
▁platform	-2503
▁Facebook	-2504
▁screen	-2505
▁nothing	-2506
▁deg	-2507
imum	-2508
▁Then	-2509
erc	-2510
arden	-2511
Wh	-2512
▁Dis	-2513
▁plans	-2514
▁clos	-2515
oom	-2516
▁true	-2517
ipping	-2518
oke	-2519
▁rather	-2520
▁purchase	-2521
▁general	-2522
▁leading	-2523
▁Ac	-2524
▁amazing	-2525
▁credit	-2526
▁police	-2527
▁Department	-2528
▁estab	-2529
▁loss	-2530
▁Net	-2531
olution	-2532
▁stat	-2533
▁chance	-2534
▁seems	-2535
▁subject	-2536
▁regard	-2537
ouncil	-2538
▁arri	-2539
eds	-2540
itchen	-2541
▁allows	-2542
▁similar	-2543
▁built	-2544
▁Sim	-2545
▁challeng	-2546
▁Mus	-2547
▁rate	-2548
▁national	-2549
▁Pat	-2550
▁usually	-2551
▁student	-2552
▁quickly	-2553
▁November	-2554
▁Also	-2555
▁photos	-2556
▁infl	-2557
▁Street	-2558
▁draw	-2559
▁teac	-2560
ashing	-2561
▁comment	-2562
off	-2563
cember	-2564
AM	-2565
ought	-2566
nesday	-2567
▁International	-2568
▁touch	-2569
▁higher	-2570
▁tast	-2571
light	-2572
oph	-2573
str	-2574
▁providing	-2575
▁Air	-2576
iber	-2577
▁deep	-2578
iter	-2579
▁excell	-2580
▁safety	-2581
▁image	-2582
▁choice	-2583
▁apply	-2584
gar	-2585
ING	-2586
mas	-2587
▁Group	-2588
▁respect	-2589
▁hands	-2590
now	-2591
▁Out	-2592
▁moment	-2593
▁prior	-2594
▁movie	-2595
▁collection	-2596
urg	-2597
ondon	-2598
▁Cons	-2599
example	-2600
▁ideas	-2601
▁decision	-2602
▁marketing	-2603
▁bud	-2604
▁sil	-2605
▁Cour	-2606
hern	-2607
lin	-2608
▁bal	-2609
▁encoura	-2610
▁inde	-2611
▁easily	-2612
▁integr	-2613
▁location	-2614
▁decided	-2615
▁ut	-2616
▁Thursday	-2617
▁Wind	-2618
▁rad	-2619
▁court	-2620
▁commit	-2621
▁af	-2622
▁cell	-2623
▁dom	-2624
▁op	-2625
▁released	-2626
▁Tuesday	-2627
ournal	-2628
ached	-2629
▁mass	-2630
▁prevent	-2631
put	-2632
▁ill	-2633
▁Home	-2634
▁reported	-2635
▁digital	-2636
▁Well	-2637
▁benefits	-2638
▁Calif	-2639
amb	-2640
▁La	-2641
▁introdu	-2642
eal	-2643
▁exact	-2644
▁wood	-2645
ivery	-2646
reng	-2647
▁Most	-2648
ma	-2649
▁file	-2650
▁attack	-2651
▁agree	-2652
▁campaign	-2653
▁display	-2654
▁ord	-2655
▁lost	-2656
ishing	-2657
▁announced	-2658
idents	-2659
▁cannot	-2660
sp	-2661
▁Business	-2662
▁daily	-2663
▁parents	-2664
▁partners	-2665
▁cause	-2666
hood	-2667
▁involved	-2668
▁drink	-2669
rown	-2670
▁sche	-2671
▁sens	-2672
ructure	-2673
▁December	-2674
▁Ang	-2675
ray	-2676
unities	-2677
▁center	-2678
ples	-2679
▁neg	-2680
▁Any	-2681
▁effic	-2682
▁expected	-2683
ederal	-2684
ospital	-2685
▁piece	-2686
▁saw	-2687
▁club	-2688
▁dest	-2689
▁vict	-2690
▁investig	-2691
OM	-2692
▁Wednesday	-2693
atory	-2694
▁user	-2695
▁weekend	-2696
▁tick	-2697
▁ep	-2698
▁affect	-2699
▁ability	-2700
ci	-2701
▁rout	-2702
▁ri	-2703
▁related	-2704
▁London	-2705
avy	-2706
▁bra	-2707
▁Click	-2708
▁save	-2709
▁norm	-2710
ilies	-2711
▁send	-2712
▁modern	-2713
ET	-2714
illing	-2715
▁Design	-2716
▁standard	-2717
▁patients	-2718
▁langu	-2719
▁circ	-2720
▁green	-2721
▁mobile	-2722
▁woman	-2723
EO	-2724
▁boy	-2725
ruary	-2726
▁iP	-2727
▁restaur	-2728
just	-2729
▁aw	-2730
▁Prof	-2731
▁Check	-2732
▁immedi	-2733
▁expert	-2734
▁fight	-2735
▁option	-2736
▁floor	-2737
▁goes	-2738
▁PM	-2739
▁computer	-2740
▁pers	-2741
▁enter	-2742
▁ded	-2743
▁global	-2744
lim	-2745
key	-2746
▁bag	-2747
▁Over	-2748
▁mother	-2749
▁target	-2750
like	-2751
istic	-2752
▁emer	-2753
board	-2754
▁serious	-2755
▁War	-2756
aves	-2757
uel	-2758
▁http	-2759
oday	-2760
▁huge	-2761
asons	-2762
▁costs	-2763
▁Rec	-2764
▁parts	-2765
enge	-2766
▁helps	-2767
▁stock	-2768
ivity	-2769
iring	-2770
▁College	-2771
▁sym	-2772
▁myself	-2773
▁surpr	-2774
zz	-2775
▁gen	-2776
ett	-2777
▁English	-2778
▁roll	-2779
▁weight	-2780
erve	-2781
ellow	-2782
▁Cr	-2783
▁code	-2784
uk	-2785
▁innov	-2786
▁Sen	-2787
▁legal	-2788
▁gives	-2789
▁earn	-2790
▁rights	-2791
ornia	-2792
▁Par	-2793
▁ones	-2794
▁gra	-2795
edding	-2796
band	-2797
▁Ob	-2798
▁Afric	-2799
▁tools	-2800
▁Del	-2801
▁solutions	-2802
▁bank	-2803
ault	-2804
▁request	-2805
▁warm	-2806
▁equipment	-2807
▁arch	-2808
▁Other	-2809
▁giving	-2810
cription	-2811
ram	-2812
▁dress	-2813
▁insurance	-2814
▁Brit	-2815
▁attention	-2816
▁feed	-2817
▁admin	-2818
pri	-2819
unt	-2820
▁played	-2821
attle	-2822
▁conditions	-2823
▁approach	-2824
▁levels	-2825
▁Techn	-2826
▁Hol	-2827
▁Book	-2828
▁sus	-2829
▁sett	-2830
▁Play	-2831
EC	-2832
▁resources	-2833
▁door	-2834
iction	-2835
ara	-2836
atives	-2837
acing	-2838
▁note	-2839
ension	-2840
▁trust	-2841
▁prim	-2842
ica	-2843
▁capt	-2844
▁qual	-2845
▁deliver	-2846
aged	-2847
▁interested	-2848
OS	-2849
▁planning	-2850
▁remember	-2851
▁award	-2852
iding	-2853
hold	-2854
▁Service	-2855
aught	-2856
▁sold	-2857
erous	-2858
▁policy	-2859
pose	-2860
▁gets	-2861
▁Trans	-2862
akers	-2863
▁starting	-2864
partment	-2865
ysis	-2866
▁solution	-2867
▁object	-2868
▁businesses	-2869
▁hear	-2870
▁write	-2871
▁highly	-2872
▁lab	-2873
▁cases	-2874
▁instead	-2875
▁Law	-2876
▁subs	-2877
▁opp	-2878
▁February	-2879
▁lower	-2880
apan	-2881
▁vac	-2882
▁themselves	-2883
▁upon	-2884
vey	-2885
▁president	-2886
▁source	-2887
▁express	-2888
ening	-2889
▁published	-2890
▁California	-2891
www	-2892
▁sense	-2893
irit	-2894
▁sale	-2895
▁fine	-2896
▁streng	-2897
▁photo	-2898
▁reach	-2899
ashion	-2900
▁plant	-2901
▁organization	-2902
urt	-2903
▁dry	-2904
ibrary	-2905
▁condition	-2906
orge	-2907
EL	-2908
▁Gener	-2909
▁materials	-2910
▁written	-2911
▁mid	-2912
AP	-2913
mission	-2914
▁firm	-2915
rup	-2916
▁types	-2917
▁interview	-2918
▁countries	-2919
▁effective	-2920
urb	-2921
izes	-2922
▁AM	-2923
add	-2924
▁Christmas	-2925
▁average	-2926
▁consult	-2927
bum	-2928
ael	-2929
▁Je	-2930
ule	-2931
▁Services	-2932
▁dise	-2933
▁Met	-2934
▁multiple	-2935
▁cat	-2936
▁Loc	-2937
▁positive	-2938
ida	-2939
▁Great	-2940
▁Rem	-2941
▁slow	-2942
mm	-2943
▁imm	-2944
enty	-2945
▁lif	-2946
wide	-2947
ato	-2948
▁Go	-2949
▁began	-2950
▁join	-2951
▁interesting	-2952
iles	-2953
▁images	-2954
▁Spe	-2955
▁describ	-2956
aches	-2957
arant	-2958
▁trip	-2959
ength	-2960
▁camer	-2961
▁seek	-2962
▁viol	-2963
ube	-2964
▁prem	-2965
▁Mod	-2966
▁answer	-2967
▁India	-2968
▁healthy	-2969
▁heat	-2970
▁opportunities	-2971
▁dream	-2972
rom	-2973
▁Sch	-2974
ography	-2975
▁Why	-2976
urer	-2977
ration	-2978
▁message	-2979
▁player	-2980
▁Thanks	-2981
ald	-2982
rought	-2983
▁document	-2984
ager	-2985
▁employees	-2986
▁Cle	-2987
elling	-2988
▁fans	-2989
▁picture	-2990
▁hour	-2991
▁sites	-2992
▁lic	-2993
▁David	-2994
press	-2995
▁Sub	-2996
▁stories	-2997
▁According	-2998
▁tele	-2999
sy	-3000
▁directly	-3001
▁necessary	-3002
▁Phot	-3003
▁completely	-3004
bit	-3005
▁item	-3006
▁achieve	-3007
▁Year	-3008
▁Hot	-3009
duc	-3010
IL	-3011
▁copy	-3012
▁families	-3013
itute	-3014
▁King	-3015
▁gift	-3016
▁groups	-3017
rel	-3018
▁essential	-3019
▁commercial	-3020
▁div	-3021
gu	-3022
▁Even	-3023
olf	-3024
ocol	-3025
▁Once	-3026
▁Program	-3027
▁pull	-3028
▁band	-3029
arlier	-3030
▁Av	-3031
orage	-3032
▁offe	-3033
▁Mag	-3034
▁Since	-3035
▁reve	-3036
▁rock	-3037
ares	-3038
▁www	-3039
▁Market	-3040
▁hor	-3041
itely	-3042
▁Whe	-3043
▁East	-3044
▁prices	-3045
▁promot	-3046
▁Found	-3047
▁fully	-3048
▁goals	-3049
▁eye	-3050
▁excellent	-3051
▁fix	-3052
▁led	-3053
▁itself	-3054
▁Many	-3055
itation	-3056
▁stru	-3057
▁growing	-3058
▁successful	-3059
▁paint	-3060
oul	-3061
iant	-3062
▁creating	-3063
▁cert	-3064
▁except	-3065
▁White	-3066
▁comments	-3067
▁Green	-3068
▁adult	-3069
coming	-3070
erved	-3071
▁fab	-3072
▁aim	-3073
▁Good	-3074
▁gar	-3075
▁neigh	-3076
onse	-3077
▁separ	-3078
▁stuff	-3079
ffee	-3080
▁traditional	-3081
▁gold	-3082
ancy	-3083
▁Germ	-3084
ooth	-3085
▁Work	-3086
▁drug	-3087
▁birth	-3088
▁broad	-3089
▁Spr	-3090
▁cross	-3091
▁fair	-3092
BC	-3093
tee	-3094
▁wasn	-3095
▁Last	-3096
uses	-3097
▁Best	-3098
▁Russ	-3099
▁cy	-3100
▁reports	-3101
iable	-3102
▁dark	-3103
wor	-3104
▁device	-3105
▁extreme	-3106
▁wrong	-3107
mb	-3108
▁saying	-3109
udd	-3110
▁mount	-3111
omen	-3112
▁Jack	-3113
▁teams	-3114
urning	-3115
▁attempt	-3116
▁terms	-3117
anch	-3118
▁shoot	-3119
▁glass	-3120
▁hop	-3121
▁block	-3122
▁vehicle	-3123
▁kitchen	-3124
ey	-3125
▁dead	-3126
▁China	-3127
▁applications	-3128
▁baby	-3129
ores	-3130
▁Tex	-3131
venue	-3132
hest	-3133
imately	-3134
▁Each	-3135
▁rev	-3136
ties	-3137
▁Web	-3138
▁Japan	-3139
▁Twitter	-3140
▁See	-3141
▁blood	-3142
ecutive	-3143
▁thinking	-3144
▁Port	-3145
uth	-3146
inner	-3147
inary	-3148
▁mention	-3149
ashington	-3150
▁gave	-3151
aughter	-3152
ipped	-3153
pite	-3154
▁depend	-3155
▁Develop	-3156
▁wait	-3157
rote	-3158
”.	-3159
TM	-3160
iced	-3161
▁bi	-3162
▁System	-3163
▁budget	-3164
▁organiz	-3165
OL	-3166
▁obs	-3167
▁aware	-3168
▁director	-3169
aries	-3170
▁speed	-3171
▁farm	-3172
▁spend	-3173
▁implement	-3174
▁attract	-3175
▁serve	-3176
istry	-3177
▁Hall	-3178
▁section	-3179
unk	-3180
▁sen	-3181
▁became	-3182
▁smart	-3183
overn	-3184
▁impress	-3185
▁Mor	-3186
▁Office	-3187
▁Association	-3188
▁profession	-3189
▁offering	-3190
raz	-3191
▁Bel	-3192
▁college	-3193
▁pictures	-3194
Ch	-3195
▁distrib	-3196
▁wish	-3197
ological	-3198
▁places	-3199
▁son	-3200
▁correct	-3201
▁effort	-3202
▁Mem	-3203
▁nation	-3204
field	-3205
rows	-3206
▁Make	-3207
▁advice	-3208
ils	-3209
▁Pri	-3210
AD	-3211
▁conduct	-3212
▁Sol	-3213
▁carry	-3214
▁limited	-3215
▁developed	-3216
▁dro	-3217
▁coun	-3218
yond	-3219
▁spent	-3220
▁suit	-3221
▁IN	-3222
ications	-3223
pre	-3224
▁avoid	-3225
▁vot	-3226
▁title	-3227
vest	-3228
▁rent	-3229
▁moving	-3230
▁Road	-3231
▁individuals	-3232
▁progress	-3233
▁situation	-3234
▁complex	-3235
▁Vis	-3236
▁Sk	-3237
▁Paul	-3238
▁defe	-3239
▁bath	-3240
▁Today	-3241
▁Canada	-3242
rench	-3243
▁Educ	-3244
▁Washington	-3245
▁delivery	-3246
▁Inter	-3247
▁Down	-3248
riend	-3249
ibly	-3250
idered	-3251
ceed	-3252
▁enh	-3253
▁About	-3254
▁Public	-3255
▁statement	-3256
▁wants	-3257
▁requirements	-3258
▁album	-3259
▁ble	-3260
▁schools	-3261
haps	-3262
▁Use	-3263
▁eat	-3264
word	-3265
▁war	-3266
▁jud	-3267
▁heard	-3268
▁advant	-3269
▁construction	-3270
▁feet	-3271
house	-3272
down	-3273
▁convers	-3274
US	-3275
▁cas	-3276
▁sometimes	-3277
▁Gold	-3278
▁physical	-3279
useum	-3280
▁quarter	-3281
▁sleep	-3282
▁race	-3283
▁sweet	-3284
ocr	-3285
▁shot	-3286
▁nut	-3287
▁felt	-3288
ancing	-3289
▁stress	-3290
▁Find	-3291
▁Director	-3292
▁AN	-3293
▁emb	-3294
fl	-3295
▁billion	-3296
▁stage	-3297
▁shop	-3298
▁hotel	-3299
▁Indian	-3300
▁Top	-3301
▁Open	-3302
▁Dem	-3303
▁towards	-3304
▁hous	-3305
▁spot	-3306
▁feeling	-3307
▁Lear	-3308
itary	-3309
▁loved	-3310
▁annual	-3311
▁consist	-3312
▁ing	-3313
porate	-3314
▁wonderful	-3315
▁owners	-3316
▁path	-3317
▁Flor	-3318
▁region	-3319
▁finally	-3320
unte	-3321
▁THE	-3322
reci	-3323
ari	-3324
▁finish	-3325
▁strateg	-3326
PS	-3327
▁brought	-3328
▁Pal	-3329
▁mat	-3330
▁Mac	-3331
▁lik	-3332
▁eyes	-3333
ctions	-3334
ports	-3335
isions	-3336
▁ten	-3337
▁ver	-3338
▁pet	-3339
▁language	-3340
▁Texas	-3341
ocks	-3342
▁Council	-3343
▁pattern	-3344
▁Club	-3345
▁straight	-3346
▁aff	-3347
▁respond	-3348
end	-3349
▁Care	-3350
▁partner	-3351
▁nearly	-3352
▁inform	-3353
▁interact	-3354
▁nature	-3355
owl	-3356
rast	-3357
▁star	-3358
▁sports	-3359
▁wife	-3360
dule	-3361
▁exerc	-3362
▁Dan	-3363
▁investment	-3364
oming	-3365
ION	-3366
▁Bre	-3367
▁helping	-3368
▁ult	-3369
▁tried	-3370
▁overall	-3371
▁pow	-3372
▁Class	-3373
▁categ	-3374
▁Hel	-3375
▁concept	-3376
▁weather	-3377
▁Sur	-3378
▁Board	-3379
▁blue	-3380
▁temper	-3381
▁guide	-3382
".	-3383
▁William	-3384
▁max	-3385
▁collabor	-3386
ened	-3387
▁Apple	-3388
▁Court	-3389
▁independ	-3390
▁largest	-3391
▁charge	-3392
roid	-3393
▁client	-3394
▁Time	-3395
▁repl	-3396
▁demand	-3397
▁Ir	-3398
▁Oh	-3399
estival	-3400
▁definitely	-3401
As	-3402
▁wear	-3403
ago	-3404
itect	-3405
hips	-3406
inger	-3407
▁wrote	-3408
He	-3409
ourney	-3410
▁gas	-3411
change	-3412
▁Ann	-3413
▁Windows	-3414
ament	-3415
▁load	-3416
▁Tom	-3417
mitted	-3418
▁ge	-3419
▁benefit	-3420
▁advert	-3421
rences	-3422
▁seven	-3423
▁turned	-3424
asc	-3425
▁pred	-3426
▁candid	-3427
▁activity	-3428
▁offered	-3429
rig	-3430
arc	-3431
▁response	-3432
▁double	-3433
aly	-3434
▁acqu	-3435
roud	-3436
▁ahead	-3437
▁appoint	-3438
▁Internet	-3439
▁influ	-3440
▁Ant	-3441
ned	-3442
▁cold	-3443
last	-3444
wise	-3445
▁miles	-3446
▁internet	-3447
ounds	-3448
▁Review	-3449
▁pieces	-3450
▁wedding	-3451
uted	-3452
▁altern	-3453
▁earlier	-3454
▁Australia	-3455
▁uses	-3456
▁Fam	-3457
▁imag	-3458
▁exactly	-3459
▁beginning	-3460
▁appreci	-3461
▁grand	-3462
▁bottom	-3463
▁Research	-3464
▁Michael	-3465
yd	-3466
ails	-3467
▁histor	-3468
▁reduce	-3469
▁thous	-3470
▁homes	-3471
▁difference	-3472
▁considered	-3473
▁James	-3474
▁belie	-3475
▁View	-3476
▁prec	-3477
▁Adv	-3478
▁political	-3479
▁served	-3480
▁transport	-3481
▁doll	-3482
bon	-3483
ying	-3484
icks	-3485
▁devices	-3486
▁entertain	-3487
▁active	-3488
net	-3489
ustain	-3490
▁challenge	-3491
▁paid	-3492
▁IT	-3493
olute	-3494
OV	-3495
▁Thank	-3496
▁cho	-3497
ampions	-3498
▁Govern	-3499
▁creative	-3500
more	-3501
▁Ty	-3502
ategy	-3503
box	-3504
▁finished	-3505
▁supply	-3506
▁surround	-3507
You	-3508
▁regul	-3509
cause	-3510
▁Rel	-3511
estern	-3512
icate	-3513
▁Look	-3514
▁Have	-3515
▁cash	-3516
▁Rich	-3517
▁retail	-3518
ston	-3519
▁understanding	-3520
▁Big	-3521
▁Char	-3522
▁eight	-3523
▁European	-3524
▁replace	-3525
▁hus	-3526
▁states	-3527
mod	-3528
orrow	-3529
umn	-3530
:||	-3531
▁Micro	-3532
icip	-3533
Re	-3534
▁lots	-3535
LE	-3536
▁Mark	-3537
dd	-3538
▁Life	-3539
▁easier	-3540
▁culture	-3541
▁Super	-3542
oly	-3543
▁maybe	-3544
▁rates	-3545
oves	-3546
antly	-3547
▁afford	-3548
▁pages	-3549
▁economic	-3550
▁experienced	-3551
sec	-3552
▁outd	-3553
▁Call	-3554
▁ST	-3555
▁Cur	-3556
ales	-3557
▁flav	-3558
vin	-3559
▁guarant	-3560
▁truly	-3561
▁analysis	-3562
▁father	-3563
▁Sl	-3564
▁pressure	-3565
raw	-3566
hens	-3567
error	-3568
inated	-3569
▁expand	-3570
▁machine	-3571
icious	-3572
bl	-3573
rial	-3574
▁named	-3575
▁reflect	-3576
▁thank	-3577
▁emot	-3578
ses	-3579
▁immediately	-3580
▁fat	-3581
▁Company	-3582
▁girls	-3583
▁Angel	-3584
▁tom	-3585
het	-3586
▁assess	-3587
amic	-3588
sych	-3589
▁exhib	-3590
▁Det	-3591
▁demon	-3592
pa	-3593
IP	-3594
▁gradu	-3595
▁IS	-3596
dom	-3597
▁prot	-3598
aled	-3599
▁contain	-3600
set	-3601
▁numbers	-3602
▁posted	-3603
▁videos	-3604
▁comfortable	-3605
▁wild	-3606
▁degree	-3607
▁garden	-3608
erry	-3609
rey	-3610
▁tips	-3611
▁Child	-3612
▁Bay	-3613
▁Ev	-3614
nown	-3615
▁obt	-3616
▁prop	-3617
▁satis	-3618
iny	-3619
care	-3620
ivil	-3621
anging	-3622
▁opening	-3623
▁helped	-3624
▁speak	-3625
▁remain	-3626
▁Management	-3627
▁pool	-3628
▁launch	-3629
▁behav	-3630
▁damage	-3631
▁trade	-3632
rem	-3633
undred	-3634
▁Bank	-3635
▁Plan	-3636
chan	-3637
▁storage	-3638
▁threat	-3639
▁Island	-3640
▁PC	-3641
▁lack	-3642
▁Ret	-3643
▁subst	-3644
phone	-3645
ronic	-3646
▁II	-3647
▁Mart	-3648
▁beyond	-3649
▁Sun	-3650
order	-3651
orial	-3652
▁Sing	-3653
▁purpose	-3654
▁completed	-3655
asy	-3656
alt	-3657
If	-3658
amm	-3659
▁knew	-3660
▁spread	-3661
force	-3662
ico	-3663
▁cards	-3664
arily	-3665
▁fashion	-3666
▁disease	-3667
tion	-3668
que	-3669
▁accur	-3670
▁reviews	-3671
▁plus	-3672
▁Contact	-3673
ado	-3674
▁Jes	-3675
▁Ins	-3676
▁cancer	-3677
▁decor	-3678
▁existing	-3679
▁fant	-3680
▁train	-3681
agn	-3682
▁Although	-3683
▁camera	-3684
▁adjust	-3685
▁highest	-3686
▁jobs	-3687
▁coffee	-3688
▁dating	-3689
▁craft	-3690
▁Water	-3691
met	-3692
▁Florida	-3693
cel	-3694
illa	-3695
atever	-3696
OW	-3697
body	-3698
▁Dec	-3699
▁responsible	-3700
▁During	-3701
▁lines	-3702
soft	-3703
▁Rob	-3704
▁Love	-3705
▁middle	-3706
▁furn	-3707
▁excited	-3708
▁proced	-3709
▁himself	-3710
▁allowed	-3711
aling	-3712
▁welcome	-3713
▁increased	-3714
▁conference	-3715
oving	-3716
▁driving	-3717
▁setting	-3718
▁Win	-3719
▁Church	-3720
▁Sum	-3721
iling	-3722
▁increasing	-3723
▁husband	-3724
▁proud	-3725
lied	-3726
▁estate	-3727
▁initial	-3728
ona	-3729
▁certainly	-3730
▁prefer	-3731
▁appropri	-3732
▁frame	-3733
▁strugg	-3734
aith	-3735
▁Republic	-3736
▁sty	-3737
imal	-3738
▁journey	-3739
oe	-3740
▁thanks	-3741
▁Sa	-3742
▁General	-3743
▁er	-3744
▁passion	-3745
▁holiday	-3746
▁fem	-3747
▁Camp	-3748
rapy	-3749
▁effects	-3750
ences	-3751
▁cast	-3752
▁Back	-3753
aming	-3754
▁born	-3755
▁files	-3756
izz	-3757
▁length	-3758
▁ingred	-3759
▁Education	-3760
▁Product	-3761
▁button	-3762
▁Community	-3763
▁normal	-3764
▁mission	-3765
▁efforts	-3766
▁People	-3767
▁bill	-3768
▁selection	-3769
▁Cong	-3770
ously	-3771
ologies	-3772
oms	-3773
▁Two	-3774
▁frequ	-3775
▁pen	-3776
▁changed	-3777
▁Mary	-3778
istics	-3779
vant	-3780
▁surv	-3781
▁looked	-3782
▁update	-3783
▁steps	-3784
▁shopping	-3785
ovel	-3786
▁spirit	-3787
▁Custom	-3788
▁occas	-3789
▁cru	-3790
▁Show	-3791
▁batter	-3792
anta	-3793
lying	-3794
▁dedicated	-3795
▁incred	-3796
▁relax	-3797
▁Rober	-3798
ken	-3799
▁Rock	-3800
icken	-3801
▁moved	-3802
ij	-3803
▁secure	-3804
ady	-3805
nection	-3806
▁evening	-3807
▁clin	-3808
fit	-3809
▁owner	-3810
▁links	-3811
▁aspect	-3812
▁stream	-3813
▁background	-3814
▁Like	-3815
▁haven	-3816
):	-3817
▁French	-3818
▁Take	-3819
▁demonstr	-3820
▁produce	-3821
▁extend	-3822
▁protection	-3823
▁Sil	-3824
▁guys	-3825
▁powerful	-3826
EM	-3827
leg	-3828
▁Cap	-3829
▁particularly	-3830
▁talking	-3831
▁science	-3832
othing	-3833
DA	-3834
▁instruct	-3835
▁opin	-3836
▁wine	-3837
isl	-3838
reed	-3839
nded	-3840
▁challenges	-3841
ipp	-3842
▁aren	-3843
ota	-3844
oma	-3845
▁occur	-3846
oos	-3847
friend	-3848
porary	-3849
▁cream	-3850
lies	-3851
▁fan	-3852
▁meaning	-3853
▁alone	-3854
▁Under	-3855
IV	-3856
omb	-3857
▁basic	-3858
▁patient	-3859
▁USA	-3860
▁session	-3861
▁rules	-3862
▁biggest	-3863
▁measure	-3864
IM	-3865
▁federal	-3866
▁transfer	-3867
▁letter	-3868
▁spring	-3869
▁couldn	-3870
enance	-3871
▁payment	-3872
▁fill	-3873
▁sort	-3874
▁Online	-3875
▁bur	-3876
▁doub	-3877
▁whose	-3878
▁Power	-3879
▁shared	-3880
itiz	-3881
▁runs	-3882
▁Project	-3883
▁Pet	-3884
▁strength	-3885
▁artist	-3886
▁Special	-3887
▁organizations	-3888
iture	-3889
▁leader	-3890
icing	-3891
see	-3892
▁basis	-3893
ios	-3894
azine	-3895
▁coach	-3896
▁Because	-3897
esome	-3898
▁schedule	-3899
istrict	-3900
▁Information	-3901
▁mis	-3902
▁church	-3903
▁egg	-3904
▁onto	-3905
▁slight	-3906
uing	-3907
▁Phil	-3908
▁liter	-3909
▁capital	-3910
acity	-3911
▁volunte	-3912
▁electric	-3913
range	-3914
▁reasons	-3915
CC	-3916
uled	-3917
annel	-3918
▁guests	-3919
▁Lake	-3920
free	-3921
▁Who	-3922
▁mer	-3923
▁sugar	-3924
▁Food	-3925
▁winter	-3926
▁manager	-3927
▁absolute	-3928
iques	-3929
▁British	-3930
▁extremely	-3931
▁competition	-3932
▁adding	-3933
▁Ve	-3934
▁instit	-3935
▁communities	-3936
▁views	-3937
vision	-3938
▁taste	-3939
▁models	-3940
▁Music	-3941
▁peace	-3942
▁Star	-3943
imb	-3944
▁drop	-3945
▁River	-3946
▁exclus	-3947
iation	-3948
▁stick	-3949
▁residents	-3950
▁regarding	-3951
rief	-3952
▁Enter	-3953
▁shown	-3954
works	-3955
apter	-3956
▁Follow	-3957
▁Miss	-3958
▁Thom	-3959
hone	-3960
gency	-3961
oyal	-3962
▁hundred	-3963
▁Yes	-3964
▁Lou	-3965
▁daughter	-3966
umber	-3967
▁seeing	-3968
istered	-3969
▁Sam	-3970
▁voice	-3971
ustr	-3972
▁unit	-3973
▁Mil	-3974
▁conven	-3975
▁followed	-3976
rab	-3977
▁Real	-3978
▁Profess	-3979
esterday	-3980
osing	-3981
▁scient	-3982
▁fra	-3983
▁sched	-3984
rian	-3985
▁advantage	-3986
▁trou	-3987
▁gone	-3988
▁heavy	-3989
azon	-3990
▁ideal	-3991
▁notice	-3992
▁Dri	-3993
▁brother	-3994
eria	-3995
▁Institute	-3996
▁chem	-3997
▁AP	-3998
▁strategy	-3999
▁colors	-4000
▁reb	-4001
▁characters	-4002
▁Fore	-4003
▁u	-4004
▁Police	-4005
▁Matt	-4006
▁Att	-4007
▁ton	-4008
ags	-4009
▁compon	-4010
▁Blue	-4011
▁manage	-4012
▁cry	-4013
▁guid	-4014
ette	-4015
ocolate	-4016
asp	-4017
oman	-4018
▁surface	-4019
▁traffic	-4020
ads	-4021
fast	-4022
▁hom	-4023
▁happened	-4024
▁smooth	-4025
▁Fire	-4026
▁Pay	-4027
▁window	-4028
term	-4029
iverse	-4030
▁score	-4031
▁Mount	-4032
▁Ben	-4033
▁bul	-4034
standing	-4035
▁Wood	-4036
▁experiences	-4037
▁graph	-4038
uce	-4039
encies	-4040
▁names	-4041
▁senior	-4042
▁standards	-4043
▁Vol	-4044
▁virt	-4045
▁beg	-4046
▁shipping	-4047
▁Mal	-4048
▁hospital	-4049
▁identify	-4050
▁talent	-4051
▁pair	-4052
▁District	-4053
Sh	-4054
la	-4055
▁Mot	-4056
▁Step	-4057
gn	-4058
▁although	-4059
▁classic	-4060
mark	-4061
ixt	-4062
▁breat	-4063
icine	-4064
▁audience	-4065
▁workers	-4066
▁initi	-4067
▁List	-4068
▁waiting	-4069
itude	-4070
▁guy	-4071
▁passed	-4072
▁beauty	-4073
TS	-4074
ech	-4075
tr	-4076
BS	-4077
▁laws	-4078
▁luck	-4079
▁experts	-4080
▁Hist	-4081
▁Est	-4082
▁covered	-4083
ula	-4084
▁academ	-4085
▁Sign	-4086
▁finding	-4087
▁fear	-4088
▁Chic	-4089
▁approx	-4090
▁professionals	-4091
rooms	-4092
▁Development	-4093
▁dang	-4094
inese	-4095
▁master	-4096
orney	-4097
acks	-4098
▁snow	-4099
▁continues	-4100
▁exciting	-4101
ss	-4102
▁mail	-4103
▁larger	-4104
▁compared	-4105
▁Team	-4106
▁trail	-4107
▁scene	-4108
▁flex	-4109
▁ice	-4110
▁efficient	-4111
▁Exper	-4112
ero	-4113
osh	-4114
▁laun	-4115
sequ	-4116
gen	-4117
▁shape	-4118
icon	-4119
▁Elect	-4120
▁critical	-4121
▁wat	-4122
▁remind	-4123
▁calls	-4124
▁restaurant	-4125
▁origin	-4126
▁boo	-4127
▁cars	-4128
▁solid	-4129
▁driver	-4130
▁eval	-4131
▁den	-4132
▁district	-4133
▁Family	-4134
▁associated	-4135
rees	-4136
▁technical	-4137
▁rob	-4138
UR	-4139
ga	-4140
▁recipe	-4141
▁TO	-4142
▁England	-4143
▁Color	-4144
▁Str	-4145
▁Science	-4146
▁Jesus	-4147
▁sand	-4148
▁keeping	-4149
▁Bet	-4150
▁listed	-4151
▁greater	-4152
▁cab	-4153
▁forget	-4154
▁maintain	-4155
▁Foundation	-4156
▁sustain	-4157
▁facilities	-4158
mail	-4159
▁sy	-4160
▁posts	-4161
imin	-4162
▁plenty	-4163
ka	-4164
▁officials	-4165
▁station	-4166
▁epis	-4167
▁PR	-4168
yer	-4169
▁continued	-4170
▁Alex	-4171
▁friendly	-4172
▁older	-4173
▁package	-4174
▁League	-4175
▁Brown	-4176
ading	-4177
▁Engine	-4178
▁minute	-4179
rowd	-4180
▁fish	-4181
▁rich	-4182
▁disapp	-4183
incip	-4184
▁Start	-4185
oop	-4186
▁announce	-4187
▁Vir	-4188
▁developing	-4189
illage	-4190
▁closed	-4191
▁football	-4192
▁truck	-4193
▁income	-4194
▁learned	-4195
ervation	-4196
▁Hum	-4197
unately	-4198
▁motor	-4199
▁useful	-4200
win	-4201
odes	-4202
itors	-4203
iller	-4204
▁rooms	-4205
ander	-4206
▁advent	-4207
▁studies	-4208
▁classes	-4209
atically	-4210
▁economy	-4211
▁Press	-4212
▁ter	-4213
▁beat	-4214
▁Smith	-4215
▁established	-4216
▁placed	-4217
well	-4218
▁tim	-4219
unning	-4220
▁died	-4221
▁produced	-4222
using	-4223
▁appropriate	-4224
▁monitor	-4225
▁Offic	-4226
▁Central	-4227
▁military	-4228
▁artists	-4229
cul	-4230
▁remove	-4231
▁Whether	-4232
▁kept	-4233
night	-4234
▁explore	-4235
▁Commission	-4236
▁handle	-4237
▁knows	-4238
gery	-4239
▁sup	-4240
rael	-4241
▁pros	-4242
CA	-4243
▁connection	-4244
▁force	-4245
▁Obama	-4246
▁gun	-4247
▁novel	-4248
rd	-4249
▁testing	-4250
▁Franc	-4251
▁adop	-4252
▁figure	-4253
▁fol	-4254
There	-4255
▁Media	-4256
▁thousands	-4257
▁Build	-4258
▁evidence	-4259
▁winning	-4260
▁street	-4261
iment	-4262
ipes	-4263
▁bright	-4264
▁opened	-4265
▁tree	-4266
▁primary	-4267
▁Grand	-4268
▁salt	-4269
▁presented	-4270
▁Social	-4271
▁Christian	-4272
▁status	-4273
What	-4274
gal	-4275
▁CEO	-4276
▁decl	-4277
▁Download	-4278
BA	-4279
▁Another	-4280
▁operations	-4281
atab	-4282
inn	-4283
▁discount	-4284
▁injury	-4285
▁requires	-4286
▁medium	-4287
▁discover	-4288
▁util	-4289
▁Arch	-4290
▁Beach	-4291
▁neighbor	-4292
▁ingredients	-4293
▁repair	-4294
IG	-4295
▁communication	-4296
▁lock	-4297
▁teaching	-4298
overy	-4299
▁sharing	-4300
▁brain	-4301
▁doctor	-4302
apers	-4303
▁starts	-4304
▁arrest	-4305
semb	-4306
outhern	-4307
▁Mex	-4308
▁catch	-4309
▁Carol	-4310
▁butter	-4311
▁harm	-4312
action	-4313
▁poor	-4314
▁scen	-4315
ideo	-4316
▁brings	-4317
▁structure	-4318
bed	-4319
▁jump	-4320
pective	-4321
iled	-4322
irection	-4323
mp	-4324
▁contains	-4325
vention	-4326
▁selected	-4327
look	-4328
arge	-4329
▁Scott	-4330
▁prepared	-4331
idential	-4332
asure	-4333
▁famous	-4334
▁dinner	-4335
olic	-4336
rehens	-4337
▁Disc	-4338
amin	-4339
men	-4340
▁Hill	-4341
▁watching	-4342
enses	-4343
▁loan	-4344
▁suff	-4345
ption	-4346
▁Chicago	-4347
▁shall	-4348
▁advance	-4349
▁Word	-4350
▁funds	-4351
▁ship	-4352
▁serving	-4353
▁esc	-4354
▁sto	-4355
▁secret	-4356
▁manufacturer	-4357
▁department	-4358
uries	-4359
▁remains	-4360
▁pray	-4361
itar	-4362
▁pm	-4363
▁vision	-4364
▁architect	-4365
▁Light	-4366
▁Dig	-4367
▁Full	-4368
▁victim	-4369
▁guess	-4370
▁veget	-4371
noon	-4372
▁Valley	-4373
ctors	-4374
▁balance	-4375
▁Cup	-4376
aven	-4377
PA	-4378
allery	-4379
▁buying	-4380
aked	-4381
▁Chinese	-4382
▁Microsoft	-4383
▁updated	-4384
atively	-4385
▁movement	-4386
▁Their	-4387
▁gain	-4388
iers	-4389
▁compl	-4390
▁resist	-4391
riage	-4392
▁journal	-4393
▁Support	-4394
▁agency	-4395
eless	-4396
▁Card	-4397
okes	-4398
cell	-4399
▁Bill	-4400
▁leaves	-4401
ooper	-4402
▁beach	-4403
lor	-4404
▁Amazon	-4405
▁Mad	-4406
▁methods	-4407
▁spending	-4408
▁Keep	-4409
▁reality	-4410
CH	-4411
▁Africa	-4412
▁cloud	-4413
”,	-4414
▁Award	-4415
▁becoming	-4416
▁encourage	-4417
ishes	-4418
▁OF	-4419
▁rank	-4420
▁map	-4421
itz	-4422
going	-4423
▁Stand	-4424
▁properties	-4425
lastname	-4426
lands	-4427
LC	-4428
RA	-4429
▁Ber	-4430
ki	-4431
▁relig	-4432
▁sport	-4433
▁bought	-4434
▁leaving	-4435
▁sector	-4436
▁showing	-4437
▁cleaning	-4438
▁happens	-4439
▁mo	-4440
▁Commit	-4441
ellig	-4442
▁Times	-4443
antic	-4444
▁Mel	-4445
ifts	-4446
▁Israel	-4447
top	-4448
▁RE	-4449
hem	-4450
▁ID	-4451
▁Date	-4452
▁plants	-4453
itness	-4454
▁rain	-4455
iest	-4456
▁spons	-4457
ror	-4458
▁Que	-4459
berg	-4460
▁cris	-4461
edy	-4462
▁Tor	-4463
▁facility	-4464
▁perhaps	-4465
▁entry	-4466
essions	-4467
ograp	-4468
▁independent	-4469
iency	-4470
▁leadership	-4471
▁Women	-4472
▁vote	-4473
▁worksh	-4474
life	-4475
▁Fort	-4476
▁wouldn	-4477
▁NY	-4478
alls	-4479
▁metal	-4480
▁Where	-4481
▁sem	-4482
▁https	-4483
▁advanced	-4484
▁determine	-4485
▁meant	-4486
▁maintenance	-4487
▁dep	-4488
▁stores	-4489
▁designs	-4490
▁Head	-4491
outs	-4492
▁Long	-4493
▁cart	-4494
▁analy	-4495
▁rare	-4496
▁ride	-4497
▁mechan	-4498
▁exercise	-4499
▁ju	-4500
▁signed	-4501
▁iPhone	-4502
osure	-4503
▁Academ	-4504
fr	-4505
▁anti	-4506
▁markets	-4507
▁fee	-4508
▁upgr	-4509
▁chair	-4510
▁funding	-4511
▁committed	-4512
abilities	-4513
▁faith	-4514
▁Div	-4515
▁Rad	-4516
▁Both	-4517
▁bird	-4518
▁mist	-4519
agram	-4520
▁Mass	-4521
craft	-4522
▁numerous	-4523
▁sources	-4524
▁Nov	-4525
▁records	-4526
▁crowd	-4527
▁unc	-4528
▁focused	-4529
▁fabric	-4530
▁Pub	-4531
▁Los	-4532
▁Ma	-4533
▁Fil	-4534
▁ir	-4535
**	-4536
▁brows	-4537
▁forms	-4538
▁Next	-4539
▁visitors	-4540
fin	-4541
▁mill	-4542
▁Android	-4543
▁actual	-4544
aturing	-4545
▁changing	-4546
isation	-4547
ception	-4548
For	-4549
estic	-4550
▁elements	-4551
▁Tim	-4552
iences	-4553
▁incor	-4554
▁establish	-4555
▁visual	-4556
▁kick	-4557
▁Organ	-4558
▁multi	-4559
▁obvious	-4560
isher	-4561
▁theme	-4562
▁Tri	-4563
▁steel	-4564
iance	-4565
▁joined	-4566
▁busy	-4567
▁capacity	-4568
gage	-4569
▁whatever	-4570
▁raised	-4571
▁Nor	-4572
▁fell	-4573
▁coverage	-4574
▁operating	-4575
▁diet	-4576
▁animals	-4577
▁menu	-4578
ini	-4579
▁showed	-4580
SS	-4581
▁grant	-4582
▁selling	-4583
▁Set	-4584
▁corner	-4585
▁worry	-4586
miss	-4587
▁practices	-4588
▁appe	-4589
▁locations	-4590
▁propos	-4591
▁songs	-4592
▁Watch	-4593
▁Medical	-4594
▁lux	-4595
▁refer	-4596
▁listen	-4597
▁Week	-4598
▁limit	-4599
▁lose	-4600
▁ban	-4601
▁Only	-4602
▁central	-4603
",	-4604
▁diagn	-4605
igation	-4606
▁George	-4607
▁roof	-4608
igan	-4609
▁tables	-4610
▁allowing	-4611
▁articles	-4612
vere	-4613
▁memory	-4614
IA	-4615
▁accommod	-4616
reek	-4617
▁managed	-4618
▁Copy	-4619
▁thr	-4620
MS	-4621
▁estim	-4622
▁population	-4623
▁decide	-4624
isco	-4625
rics	-4626
▁tickets	-4627
▁society	-4628
fol	-4629
▁uns	-4630
▁claims	-4631
▁rap	-4632
▁parking	-4633
▁plastic	-4634
▁caused	-4635
▁Note	-4636
▁parties	-4637
▁survey	-4638
▁Before	-4639
▁relationships	-4640
OP	-4641
▁ended	-4642
▁transl	-4643
▁afternoon	-4644
ya	-4645
▁updates	-4646
▁assistance	-4647
▁Sy	-4648
▁walking	-4649
▁core	-4650
uty	-4651
ivered	-4652
▁yesterday	-4653
▁CD	-4654
▁forum	-4655
ferences	-4656
ection	-4657
▁Mer	-4658
▁techniques	-4659
gers	-4660
▁documents	-4661
Cl	-4662
▁brown	-4663
pan	-4664
▁wire	-4665
▁repe	-4666
▁mort	-4667
obe	-4668
▁flat	-4669
▁previously	-4670
▁sea	-4671
▁thoughts	-4672
▁Its	-4673
▁colour	-4674
▁bowl	-4675
▁Cre	-4676
▁spl	-4677
point	-4678
▁landsc	-4679
▁Game	-4680
▁vehicles	-4681
▁awesome	-4682
▁appears	-4683
iliar	-4684
arrant	-4685
▁youth	-4686
▁Chris	-4687
▁enjoyed	-4688
▁accident	-4689
▁combination	-4690
▁filled	-4691
bour	-4692
▁legisl	-4693
▁toward	-4694
gl	-4695
▁Town	-4696
▁Society	-4697
▁launched	-4698
ola	-4699
▁smaller	-4700
▁courses	-4701
▁shel	-4702
▁Bur	-4703
▁eating	-4704
▁Network	-4705
▁profile	-4706
▁generally	-4707
oors	-4708
▁Trump	-4709
DF	-4710
▁Democr	-4711
umin	-4712
▁putting	-4713
▁charges	-4714
▁scr	-4715
▁teacher	-4716
▁factors	-4717
ano	-4718
coh	-4719
▁psych	-4720
while	-4721
▁Author	-4722
▁firstname	-4723
▁temperature	-4724
▁Atl	-4725
eed	-4726
▁Sand	-4727
▁notes	-4728
▁Technology	-4729
▁CA	-4730
▁micro	-4731
▁earth	-4732
??	-4733
▁kid	-4734
▁Wil	-4735
ita	-4736
orthern	-4737
▁counter	-4738
▁task	-4739
▁optim	-4740
▁Mont	-4741
▁vs	-4742
▁direction	-4743
▁Congress	-4744
▁panel	-4745
rehensive	-4746
!!!	-4747
▁citiz	-4748
▁teachers	-4749
▁purs	-4750
▁Learn	-4751
no	-4752
▁corporate	-4753
▁values	-4754
bert	-4755
▁outdoor	-4756
▁Virgin	-4757
▁assign	-4758
▁shut	-4759
rs	-4760
yan	-4761
▁Main	-4762
▁favour	-4763
▁AL	-4764
▁swim	-4765
▁Committee	-4766
▁honest	-4767
▁separate	-4768
▁bon	-4769
New	-4770
▁Government	-4771
▁tend	-4772
▁century	-4773
▁situ	-4774
▁concerns	-4775
▁throw	-4776
▁Arts	-4777
pet	-4778
▁Log	-4779
▁Jew	-4780
ordin	-4781
▁Frank	-4782
▁cheese	-4783
▁sch	-4784
▁becomes	-4785
▁matt	-4786
▁helpful	-4787
istan	-4788
▁Jul	-4789
▁Lord	-4790
▁truth	-4791
▁Robert	-4792
▁fold	-4793
OD	-4794
osition	-4795
▁fourth	-4796
On	-4797
ownt	-4798
▁orders	-4799
▁Data	-4800
▁Centre	-4801
▁despite	-4802
▁slightly	-4803
▁missing	-4804
▁ur	-4805
▁adapt	-4806
▁Land	-4807
▁AC	-4808
ifying	-4809
▁polic	-4810
▁van	-4811
iration	-4812
▁apart	-4813
▁installation	-4814
kin	-4815
▁Mike	-4816
orter	-4817
▁relevant	-4818
▁Security	-4819
▁dur	-4820
▁tow	-4821
▁Wall	-4822
▁Museum	-4823
een	-4824
▁Dou	-4825
rical	-4826
▁flu	-4827
▁environmental	-4828
▁decisions	-4829
po	-4830
cher	-4831
▁Prov	-4832
▁Tur	-4833
▁upcoming	-4834
oles	-4835
▁south	-4836
usion	-4837
azz	-4838
▁pal	-4839
▁Aud	-4840
▁Old	-4841
▁discussion	-4842
▁UN	-4843
▁Den	-4844
▁sav	-4845
▁Jim	-4846
▁Ext	-4847
ipl	-4848
▁format	-4849
▁Louis	-4850
▁waste	-4851
▁enhance	-4852
▁Tre	-4853
▁joint	-4854
▁dance	-4855
olars	-4856
▁willing	-4857
▁YOU	-4858
ups	-4859
▁innovative	-4860
▁sounds	-4861
▁Somet	-4862
▁Hotel	-4863
▁fantastic	-4864
▁hearing	-4865
▁mental	-4866
▁AND	-4867
▁Pack	-4868
▁commitment	-4869
▁appeal	-4870
▁Posted	-4871
▁desk	-4872
▁raise	-4873
▁milk	-4874
▁inspired	-4875
▁Manager	-4876
▁fuel	-4877
?”	-4878
SP	-4879
hab	-4880
▁spect	-4881
▁Lead	-4882
▁Fun	-4883
inct	-4884
▁civil	-4885
known	-4886
▁asking	-4887
▁consumers	-4888
▁Through	-4889
Com	-4890
▁plays	-4891
▁ath	-4892
▁library	-4893
ensions	-4894
▁promote	-4895
irus	-4896
rist	-4897
▁executive	-4898
SA	-4899
▁reached	-4900
▁north	-4901
▁absolutely	-4902
▁movies	-4903
▁Contin	-4904
▁Ham	-4905
▁expertise	-4906
▁delivered	-4907
▁chocolate	-4908
▁delicious	-4909
▁Vict	-4910
osen	-4911
▁agreement	-4912
water	-4913
▁Place	-4914
▁foreign	-4915
▁extensive	-4916
▁eth	-4917
▁Jun	-4918
▁lunch	-4919
aser	-4920
▁units	-4921
▁Report	-4922
▁Ill	-4923
▁furniture	-4924
nergy	-4925
▁Series	-4926
▁alle	-4927
ye	-4928
ternal	-4929
▁Angeles	-4930
uable	-4931
▁bask	-4932
▁sets	-4933
▁struct	-4934
▁rid	-4935
REE	-4936
▁Lim	-4937
icians	-4938
▁brief	-4939
▁emergency	-4940
▁poll	-4941
▁fruit	-4942
▁thick	-4943
▁datab	-4944
▁NE	-4945
▁register	-4946
eline	-4947
▁radio	-4948
▁trees	-4949
▁transform	-4950
▁Link	-4951
text	-4952
zen	-4953
▁Cook	-4954
!)	-4955
▁Join	-4956
bre	-4957
▁feels	-4958
reens	-4959
list	-4960
▁generation	-4961
▁Oper	-4962
prise	-4963
▁fees	-4964
▁combined	-4965
▁seeking	-4966
▁Const	-4967
▁Gal	-4968
▁presence	-4969
▁Upd	-4970
▁Fund	-4971
▁NOT	-4972
▁Union	-4973
atin	-4974
▁Admin	-4975
▁har	-4976
▁provider	-4977
▁Invest	-4978
▁edge	-4979
▁seconds	-4980
▁Hand	-4981
Pro	-4982
▁achie	-4983
▁mentioned	-4984
▁expensive	-4985
▁adults	-4986
▁Journal	-4987
▁rat	-4988
rag	-4989
▁recommended	-4990
▁controll	-4991
▁approximately	-4992
▁distance	-4993
▁trial	-4994
▁Plus	-4995
fortunately	-4996
▁calling	-4997
▁neck	-4998
▁readers	-4999
ae	-5000
▁prepare	-5001
▁chicken	-5002
TH	-5003
▁restrict	-5004
▁photograph	-5005
▁bringing	-5006
▁Person	-5007
▁stars	-5008
▁Access	-5009
▁Ol	-5010
▁ON	-5011
▁alternative	-5012
▁websites	-5013
▁connected	-5014
ef	-5015
▁consid	-5016
▁server	-5017
▁square	-5018
▁Chief	-5019
▁disp	-5020
▁confidence	-5021
▁tight	-5022
▁Di	-5023
appy	-5024
▁tun	-5025
▁cities	-5026
uality	-5027
▁chat	-5028
IR	-5029
▁married	-5030
▁nine	-5031
▁lovely	-5032
My	-5033
othes	-5034
▁operation	-5035
▁wel	-5036
▁Spring	-5037
▁info	-5038
▁Indust	-5039
cean	-5040
▁registered	-5041
▁Minister	-5042
ears	-5043
▁Peter	-5044
▁dogs	-5045
▁majority	-5046
▁stret	-5047
burg	-5048
LA	-5049
▁minimum	-5050
▁France	-5051
▁Inte	-5052
▁returned	-5053
▁Way	-5054
▁topic	-5055
▁ang	-5056
▁centre	-5057
▁Master	-5058
ruit	-5059
▁educational	-5060
bu	-5061
emporary	-5062
▁category	-5063
▁Live	-5064
irmed	-5065
atre	-5066
▁Prote	-5067
▁researc	-5068
▁tough	-5069
aks	-5070
▁exchange	-5071
▁tea	-5072
▁guest	-5073
▁Children	-5074
▁mostly	-5075
▁seat	-5076
▁brands	-5077
ship	-5078
▁ven	-5079
▁princip	-5080
▁sauce	-5081
▁installed	-5082
how	-5083
osis	-5084
▁Rest	-5085
▁responsibility	-5086
▁Canad	-5087
▁wearing	-5088
IF	-5089
▁colle	-5090
When	-5091
asks	-5092
▁winner	-5093
▁Ok	-5094
▁appearance	-5095
▁Ver	-5096
OC	-5097
estyle	-5098
ulated	-5099
▁accompl	-5100
▁academic	-5101
kins	-5102
▁surgery	-5103
elines	-5104
▁Cy	-5105
▁female	-5106
omin	-5107
▁measures	-5108
▁Max	-5109
ker	-5110
▁Sup	-5111
▁Men	-5112
▁therefore	-5113
▁teen	-5114
▁stre	-5115
An	-5116
▁instru	-5117
▁killed	-5118
▁leads	-5119
▁cooking	-5120
hi	-5121
▁anywhere	-5122
van	-5123
ifications	-5124
▁Squ	-5125
▁Price	-5126
▁approved	-5127
▁signs	-5128
▁gather	-5129
ait	-5130
▁processes	-5131
▁chief	-5132
▁HD	-5133
mond	-5134
▁arrange	-5135
▁Test	-5136
▁maximum	-5137
▁climate	-5138
▁veter	-5139
▁impl	-5140
▁Video	-5141
▁Sports	-5142
▁boost	-5143
▁scheduled	-5144
▁satisf	-5145
lets	-5146
▁detailed	-5147
▁apps	-5148
nel	-5149
▁supporting	-5150
▁McC	-5151
▁Creat	-5152
ius	-5153
▁battery	-5154
▁defense	-5155
▁Jud	-5156
▁Library	-5157
alian	-5158
▁ring	-5159
▁rise	-5160
▁Earth	-5161
▁cheap	-5162
▁switch	-5163
▁importance	-5164
▁sympt	-5165
▁battle	-5166
ician	-5167
▁dyn	-5168
ena	-5169
▁Thomas	-5170
urd	-5171
▁worldwide	-5172
▁highlight	-5173
▁Lab	-5174
▁Mo	-5175
▁Festival	-5176
paper	-5177
▁feedback	-5178
▁Tour	-5179
cohol	-5180
▁Bob	-5181
▁purchased	-5182
▁featured	-5183
▁participants	-5184
orry	-5185
anda	-5186
▁comprehensive	-5187
ulty	-5188
▁IP	-5189
roy	-5190
▁otherwise	-5191
▁Hy	-5192
▁affordable	-5193
▁Conference	-5194
▁clearly	-5195
▁Search	-5196
oga	-5197
▁bike	-5198
▁Johnson	-5199
▁Wild	-5200
ters	-5201
FL	-5202
▁Those	-5203
▁properly	-5204
arsh	-5205
iminal	-5206
▁Cat	-5207
TC	-5208
▁animal	-5209
▁conv	-5210
▁predict	-5211
▁performed	-5212
idden	-5213
▁ourselves	-5214
iser	-5215
otten	-5216
▁Using	-5217
▁joy	-5218
▁competitive	-5219
▁actions	-5220
alend	-5221
▁ment	-5222
▁Party	-5223
▁Jeff	-5224
ulate	-5225
itable	-5226
▁pregn	-5227
▁Copyright	-5228
▁doors	-5229
oston	-5230
▁Pan	-5231
▁Bi	-5232
▁Cam	-5233
uts	-5234
▁Global	-5235
vis	-5236
▁meal	-5237
▁mouth	-5238
erg	-5239
▁pump	-5240
GB	-5241
▁sitting	-5242
pected	-5243
▁appeared	-5244
▁advertising	-5245
▁supported	-5246
▁audio	-5247
▁Jose	-5248
▁motiv	-5249
▁sister	-5250
▁vent	-5251
▁Saf	-5252
ENT	-5253
▁policies	-5254
verse	-5255
▁push	-5256
▁applied	-5257
▁valid	-5258
▁windows	-5259
▁Prem	-5260
▁topics	-5261
▁editor	-5262
▁chemical	-5263
▁Room	-5264
▁Charl	-5265
▁plug	-5266
▁minor	-5267
▁rom	-5268
▁writer	-5269
▁Form	-5270
▁opinion	-5271
▁technologies	-5272
▁bond	-5273
rastructure	-5274
▁flowers	-5275
▁Bas	-5276
▁familiar	-5277
▁behavior	-5278
▁episode	-5279
▁entertainment	-5280
▁arm	-5281
▁Western	-5282
▁Haw	-5283
▁holding	-5284
▁Germany	-5285
ushed	-5286
ocket	-5287
▁studio	-5288
▁sides	-5289
▁featuring	-5290
▁participate	-5291
▁African	-5292
gment	-5293
▁Walk	-5294
alog	-5295
but	-5296
▁rub	-5297
▁Martin	-5298
▁birthday	-5299
▁Soft	-5300
▁revenue	-5301
▁totally	-5302
▁Champions	-5303
west	-5304
MA	-5305
▁tail	-5306
▁scale	-5307
▁Connect	-5308
▁charged	-5309
▁Help	-5310
▁coast	-5311
▁ap	-5312
bol	-5313
▁faster	-5314
▁jew	-5315
▁television	-5316
▁visiting	-5317
▁quiet	-5318
▁eventually	-5319
prene	-5320
▁begins	-5321
▁caught	-5322
▁Fair	-5323
▁removed	-5324
▁Kore	-5325
col	-5326
▁labor	-5327
inch	-5328
▁Energy	-5329
▁Cost	-5330
▁described	-5331
▁conversation	-5332
▁Mic	-5333
▁fif	-5334
hus	-5335
▁teach	-5336
▁cro	-5337
▁depending	-5338
UN	-5339
▁restaurants	-5340
▁meat	-5341
▁deals	-5342
erts	-5343
otic	-5344
tered	-5345
▁reliable	-5346
▁Girl	-5347
▁Sar	-5348
▁consumer	-5349
▁monthly	-5350
▁essay	-5351
▁university	-5352
▁strategies	-5353
▁Dev	-5354
▁species	-5355
▁pu	-5356
▁housing	-5357
ht	-5358
eries	-5359
▁officer	-5360
weight	-5361
reprene	-5362
▁Hospital	-5363
apes	-5364
▁election	-5365
▁delight	-5366
orough	-5367
▁improved	-5368
▁dish	-5369
▁hundreds	-5370
▁ign	-5371
ste	-5372
▁German	-5373
ulous	-5374
▁nav	-5375
▁emp	-5376
▁Joe	-5377
inter	-5378
▁campus	-5379
▁MP	-5380
with	-5381
▁employee	-5382
oration	-5383
▁breakfast	-5384
▁marriage	-5385
ersey	-5386
▁cells	-5387
▁label	-5388
▁Id	-5389
▁occasion	-5390
▁Digital	-5391
▁flight	-5392
▁Australian	-5393
▁introduced	-5394
▁Cert	-5395
▁neighborhood	-5396
▁inches	-5397
razy	-5398
▁revealed	-5399
▁Orig	-5400
SE	-5401
▁fly	-5402
ario	-5403
▁Gen	-5404
den	-5405
king	-5406
▁shoes	-5407
▁Penn	-5408
achel	-5409
▁CH	-5410
▁discovered	-5411
▁Ce	-5412
▁celebrate	-5413
▁confirm	-5414
▁specifically	-5415
▁unless	-5416
igr	-5417
▁covers	-5418
▁administration	-5419
▁typically	-5420
TV	-5421
Our	-5422
hew	-5423
▁planned	-5424
▁volume	-5425
▁Ul	-5426
▁cutting	-5427
▁Mid	-5428
▁Academy	-5429
How	-5430
▁exclusive	-5431
▁accounts	-5432
merce	-5433
ighter	-5434
▁compar	-5435
▁amb	-5436
ala	-5437
▁internal	-5438
▁Americans	-5439
▁debt	-5440
▁Secret	-5441
▁cultural	-5442
edia	-5443
▁sessions	-5444
▁twe	-5445
▁vary	-5446
▁appointment	-5447
iat	-5448
▁Lt	-5449
▁Maybe	-5450
▁indic	-5451
▁shares	-5452
ixture	-5453
▁Opt	-5454
▁mel	-5455
▁Young	-5456
▁intended	-5457
ushing	-5458
▁cake	-5459
▁scored	-5460
▁bread	-5461
▁Hope	-5462
aded	-5463
▁SP	-5464
▁wal	-5465
▁edition	-5466
hent	-5467
▁nor	-5468
▁fle	-5469
▁manufacturing	-5470
gas	-5471
▁aspects	-5472
NA	-5473
rim	-5474
▁remaining	-5475
▁Japanese	-5476
▁investigation	-5477
ords	-5478
▁icon	-5479
▁Boy	-5480
▁chart	-5481
▁Boston	-5482
▁sexual	-5483
▁incredible	-5484
▁Commun	-5485
▁Second	-5486
▁Ari	-5487
▁mir	-5488
▁industrial	-5489
ournament	-5490
▁concent	-5491
▁basket	-5492
▁Pac	-5493
▁Wal	-5494
lymp	-5495
aren	-5496
▁Box	-5497
▁engineering	-5498
▁recovery	-5499
elly	-5500
UT	-5501
▁drivers	-5502
mosp	-5503
▁remote	-5504
▁dining	-5505
uke	-5506
▁Meet	-5507
▁burn	-5508
▁invent	-5509
▁freed	-5510
▁negative	-5511
);	-5512
asts	-5513
▁Carolina	-5514
▁lights	-5515
▁Er	-5516
rupt	-5517
▁guarantee	-5518
▁Type	-5519
▁seemed	-5520
▁partnership	-5521
▁chain	-5522
▁automatically	-5523
▁fields	-5524
▁trading	-5525
▁End	-5526
▁resource	-5527
▁liqu	-5528
▁Jon	-5529
▁detect	-5530
▁forg	-5531
lock	-5532
▁argu	-5533
▁components	-5534
▁Virginia	-5535
▁dollars	-5536
cont	-5537
odies	-5538
▁Key	-5539
eper	-5540
▁boys	-5541
berry	-5542
▁Tem	-5543
▁noted	-5544
▁arrived	-5545
CE	-5546
aped	-5547
▁Lee	-5548
▁practical	-5549
idays	-5550
▁perfectly	-5551
▁victory	-5552
▁Human	-5553
▁Jones	-5554
cm	-5555
unting	-5556
▁films	-5557
bur	-5558
▁quot	-5559
▁confirmed	-5560
lywood	-5561
▁bedroom	-5562
cles	-5563
▁Gar	-5564
▁twice	-5565
▁FREE	-5566
▁Applic	-5567
▁shooting	-5568
▁hyd	-5569
▁thus	-5570
▁possibly	-5571
▁evalu	-5572
▁interior	-5573
▁depos	-5574
▁choices	-5575
▁depart	-5576
▁Brand	-5577
hand	-5578
uits	-5579
▁rule	-5580
▁cop	-5581
otton	-5582
ua	-5583
▁buildings	-5584
▁Mult	-5585
away	-5586
▁Victor	-5587
▁suitable	-5588
▁Equ	-5589
▁Cast	-5590
▁DV	-5591
▁symptoms	-5592
▁bathroom	-5593
▁broken	-5594
▁honor	-5595
iability	-5596
inet	-5597
▁Know	-5598
itionally	-5599
▁island	-5600
tters	-5601
▁warrant	-5602
Ex	-5603
▁teeth	-5604
▁ticket	-5605
urban	-5606
▁corn	-5607
▁crew	-5608
▁commission	-5609
rier	-5610
▁doubt	-5611
▁anc	-5612
▁boat	-5613
▁stated	-5614
arp	-5615
▁Italian	-5616
uous	-5617
flow	-5618
▁Students	-5619
▁issued	-5620
▁injuries	-5621
▁Little	-5622
▁fro	-5623
▁foods	-5624
▁chosen	-5625
▁picked	-5626
▁Quest	-5627
▁Coast	-5628
▁elig	-5629
▁Games	-5630
▁Williams	-5631
▁considering	-5632
▁paying	-5633
related	-5634
arks	-5635
▁golf	-5636
gend	-5637
▁intellig	-5638
atoes	-5639
▁rapid	-5640
▁Tit	-5641
▁Mexico	-5642
▁desire	-5643
ilit	-5644
poses	-5645
▁bigger	-5646
▁missed	-5647
▁Steve	-5648
▁aid	-5649
▁reference	-5650
▁Farm	-5651
road	-5652
owntown	-5653
No	-5654
▁license	-5655
▁tests	-5656
ibilities	-5657
cious	-5658
▁ris	-5659
▁Mat	-5660
▁Does	-5661
ailability	-5662
▁circum	-5663
TA	-5664
eration	-5665
▁Instead	-5666
▁attorney	-5667
▁appreciate	-5668
▁Trust	-5669
otal	-5670
ias	-5671
▁mode	-5672
▁Assist	-5673
▁realize	-5674
ulations	-5675
▁spr	-5676
▁keeps	-5677
!”	-5678
▁trend	-5679
▁Econom	-5680
▁valuable	-5681
▁contest	-5682
▁presentation	-5683
▁turns	-5684
▁tomorrow	-5685
▁Page	-5686
▁enable	-5687
▁decades	-5688
▁candidates	-5689
ien	-5690
▁magazine	-5691
iors	-5692
▁Night	-5693
▁sizes	-5694
▁ends	-5695
▁voc	-5696
▁lived	-5697
▁Hard	-5698
▁regularly	-5699
▁Kn	-5700
▁Olymp	-5701
▁premium	-5702
▁oven	-5703
▁soul	-5704
▁nurs	-5705
ris	-5706
▁agent	-5707
what	-5708
PR	-5709
▁Expl	-5710
▁Instagram	-5711
▁failed	-5712
▁database	-5713
▁Canadian	-5714
weet	-5715
▁Ohio	-5716
iamond	-5717
▁sequ	-5718
▁protected	-5719
▁AS	-5720
hetic	-5721
ora	-5722
▁Michigan	-5723
▁ran	-5724
▁answers	-5725
wing	-5726
▁Span	-5727
▁organic	-5728
▁registration	-5729
▁Current	-5730
▁county	-5731
▁Kh	-5732
▁draft	-5733
▁proposed	-5734
▁earned	-5735
▁weap	-5736
▁loves	-5737
▁moments	-5738
fection	-5739
▁mine	-5740
▁greatest	-5741
▁investors	-5742
▁tells	-5743
▁settings	-5744
▁dates	-5745
▁citizens	-5746
▁ec	-5747
▁surrounding	-5748
AY	-5749
▁surf	-5750
▁providers	-5751
▁Code	-5752
mes	-5753
▁grade	-5754
▁Pass	-5755
▁grown	-5756
▁affected	-5757
ev	-5758
▁therapy	-5759
▁painting	-5760
vell	-5761
oosing	-5762
▁resol	-5763
.|	-5764
▁Bra	-5765
gs	-5766
▁agencies	-5767
▁quant	-5768
▁supports	-5769
which	-5770
▁reput	-5771
▁AR	-5772
Al	-5773
lights	-5774
▁renew	-5775
ella	-5776
▁MS	-5777
▁config	-5778
▁Lo	-5779
▁Did	-5780
▁ages	-5781
▁surprise	-5782
▁beer	-5783
oking	-5784
▁yes	-5785
▁influence	-5786
▁explain	-5787
▁degrees	-5788
abled	-5789
▁submit	-5790
▁accurate	-5791
▁recorded	-5792
▁inn	-5793
▁athlet	-5794
▁Executive	-5795
pass	-5796
oup	-5797
▁league	-5798
spe	-5799
▁Bal	-5800
▁Cross	-5801
▁whom	-5802
▁calcul	-5803
▁History	-5804
fficient	-5805
▁apparent	-5806
▁dial	-5807
▁Control	-5808
ansas	-5809
phas	-5810
tra	-5811
▁processing	-5812
▁hero	-5813
▁die	-5814
▁purposes	-5815
▁Van	-5816
abet	-5817
ria	-5818
▁Georg	-5819
OVID	-5820
▁pure	-5821
▁Point	-5822
▁holds	-5823
▁Middle	-5824
▁Federal	-5825
irms	-5826
▁Enjoy	-5827
▁virtual	-5828
▁gro	-5829
acle	-5830
▁Def	-5831
▁atmosp	-5832
vy	-5833
▁owned	-5834
mar	-5835
▁interests	-5836
▁Buy	-5837
▁convenient	-5838
▁Mur	-5839
▁Jackson	-5840
▁Asia	-5841
▁officers	-5842
real	-5843
▁instructions	-5844
▁element	-5845
▁awareness	-5846
hors	-5847
▁Sn	-5848
luding	-5849
▁Share	-5850
▁violence	-5851
▁researchers	-5852
▁forced	-5853
rick	-5854
▁poly	-5855
▁effectively	-5856
▁Cas	-5857
kes	-5858
▁efficiency	-5859
▁Columb	-5860
print	-5861
▁Inf	-5862
▁returns	-5863
▁Ire	-5864
▁goods	-5865
▁route	-5866
▁infrastructure	-5867
▁pepper	-5868
▁Three	-5869
▁Paris	-5870
▁occup	-5871
▁facing	-5872
▁receiving	-5873
▁Comple	-5874
▁pleased	-5875
▁jack	-5876
▁creation	-5877
alendar	-5878
▁Sher	-5879
▁standing	-5880
▁perman	-5881
▁lighting	-5882
▁messages	-5883
▁lit	-5884
▁channel	-5885
▁musical	-5886
▁incident	-5887
▁Made	-5888
▁belong	-5889
profit	-5890
▁pod	-5891
▁apartment	-5892
made	-5893
▁Try	-5894
▁Royal	-5895
irty	-5896
▁electronic	-5897
▁closer	-5898
▁administr	-5899
▁Gra	-5900
▁Ken	-5901
intage	-5902
ospit	-5903
▁causes	-5904
▁thread	-5905
▁Photo	-5906
▁Richard	-5907
▁ongoing	-5908
▁Travel	-5909
▁diverse	-5910
▁everyday	-5911
▁distribution	-5912
oes	-5913
▁mini	-5914
▁Requ	-5915
ache	-5916
▁sad	-5917
anche	-5918
▁Daily	-5919
hy	-5920
▁plate	-5921
▁wheel	-5922
poration	-5923
▁Need	-5924
▁usual	-5925
▁disappoint	-5926
▁pun	-5927
ban	-5928
▁advoc	-5929
ribe	-5930
▁supposed	-5931
▁trouble	-5932
▁error	-5933
PM	-5934
GE	-5935
isters	-5936
▁Size	-5937
▁grad	-5938
▁obtain	-5939
inations	-5940
▁arts	-5941
▁Cath	-5942
za	-5943
▁meetings	-5944
▁stopped	-5945
▁Cred	-5946
▁ped	-5947
▁sam	-5948
▁Store	-5949
▁du	-5950
▁Chair	-5951
▁serves	-5952
▁favourite	-5953
itage	-5954
▁healthcare	-5955
rete	-5956
▁wid	-5957
▁enthus	-5958
ennis	-5959
▁Ut	-5960
▁bound	-5961
▁kinds	-5962
umes	-5963
iner	-5964
▁Four	-5965
ums	-5966
▁construct	-5967
oses	-5968
▁rough	-5969
▁knowing	-5970
equ	-5971
aration	-5972
uction	-5973
udden	-5974
iveness	-5975
▁spaces	-5976
▁licens	-5977
▁silver	-5978
▁flour	-5979
arian	-5980
▁manner	-5981
▁Rev	-5982
▁rot	-5983
▁tack	-5984
▁judge	-5985
▁yellow	-5986
▁WH	-5987
▁clothes	-5988
▁Ltd	-5989
▁fellow	-5990
ello	-5991
▁designer	-5992
ml	-5993
▁Wi	-5994
▁massive	-5995
cue	-5996
never	-5997
▁Ell	-5998
▁Andrew	-5999
▁household	-6000
▁collaboration	-6001
▁concerned	-6002
Tube	-6003
▁Local	-6004
EE	-6005
▁Wr	-6006
▁horse	-6007
astern	-6008
▁crime	-6009
▁subscrib	-6010
DS	-6011
▁stone	-6012
▁follows	-6013
All	-6014
▁agreed	-6015
▁challenging	-6016
ansion	-6017
▁weekly	-6018
▁regional	-6019
orable	-6020
▁Guide	-6021
oti	-6022
▁affili	-6023
anges	-6024
▁Ra	-6025
sembly	-6026
▁tur	-6027
▁forces	-6028
actions	-6029
ancer	-6030
▁Daniel	-6031
▁Right	-6032
person	-6033
▁functions	-6034
FC	-6035
▁hang	-6036
▁tut	-6037
▁treated	-6038
▁alcohol	-6039
▁male	-6040
▁prison	-6041
▁witness	-6042
▁Low	-6043
▁moist	-6044
▁crisis	-6045
▁Mean	-6046
▁cute	-6047
▁Santa	-6048
▁AT	-6049
▁lifestyle	-6050
▁Francisco	-6051
▁reserved	-6052
▁emotional	-6053
pond	-6054
▁photograp	-6055
▁spokes	-6056
▁assets	-6057
▁native	-6058
▁powder	-6059
▁Hen	-6060
▁complic	-6061
▁script	-6062
ployment	-6063
▁fixed	-6064
▁explained	-6065
under	-6066
▁Blog	-6067
▁impressive	-6068
▁simpl	-6069
▁shock	-6070
lo	-6071
▁sample	-6072
▁Russian	-6073
▁reduced	-6074
▁debut	-6075
Con	-6076
zy	-6077
ppers	-6078
▁Marketing	-6079
▁Visit	-6080
yard	-6081
▁payments	-6082
▁fort	-6083
▁matters	-6084
writ	-6085
erves	-6086
▁Clean	-6087
alled	-6088
▁successfully	-6089
▁Rights	-6090
Ar	-6091
▁Summer	-6092
▁Hor	-6093
▁row	-6094
▁password	-6095
▁luxury	-6096
▁innovation	-6097
▁inspiration	-6098
igration	-6099
▁mur	-6100
▁forest	-6101
▁FOR	-6102
ani	-6103
▁extended	-6104
acking	-6105
▁cock	-6106
▁drugs	-6107
▁iron	-6108
lyn	-6109
Un	-6110
▁prompt	-6111
▁employment	-6112
▁vacation	-6113
Be	-6114
▁identified	-6115
▁Southern	-6116
▁walls	-6117
▁der	-6118
ench	-6119
▁recognized	-6120
And	-6121
▁determined	-6122
▁grab	-6123
▁Ep	-6124
▁accepted	-6125
▁gifts	-6126
▁conducted	-6127
▁odd	-6128
▁advis	-6129
▁styles	-6130
▁Area	-6131
▁phil	-6132
▁context	-6133
▁Pot	-6134
▁tou	-6135
▁Turn	-6136
folio	-6137
They	-6138
letter	-6139
BI	-6140
▁folks	-6141
▁Sky	-6142
▁happening	-6143
▁freedom	-6144
▁perspective	-6145
▁likes	-6146
▁Name	-6147
▁graduate	-6148
▁leather	-6149
▁Rose	-6150
▁candidate	-6151
▁Kim	-6152
▁resolution	-6153
▁Die	-6154
▁nearby	-6155
▁carried	-6156
▁Financial	-6157
▁univers	-6158
▁Coll	-6159
▁telling	-6160
▁speech	-6161
▁Hon	-6162
▁worse	-6163
▁factor	-6164
▁clinical	-6165
▁committee	-6166
▁outstanding	-6167
▁SH	-6168
xy	-6169
▁positions	-6170
▁Scot	-6171
Don	-6172
▁Ash	-6173
ucle	-6174
rid	-6175
▁mixed	-6176
▁tag	-6177
mary	-6178
▁dangerous	-6179
▁sustainable	-6180
cling	-6181
▁gear	-6182
emic	-6183
▁rand	-6184
▁Training	-6185
can	-6186
▁height	-6187
▁Colorado	-6188
▁domestic	-6189
▁Awards	-6190
▁decre	-6191
▁Ro	-6192
anged	-6193
▁speaking	-6194
ulture	-6195
▁constantly	-6196
▁accessible	-6197
▁stunning	-6198
▁Job	-6199
▁nom	-6200
▁Spanish	-6201
vate	-6202
▁stands	-6203
rip	-6204
▁supplies	-6205
▁Sometimes	-6206
▁emphas	-6207
▁casino	-6208
▁involve	-6209
▁originally	-6210
▁conflic	-6211
▁imagine	-6212
▁awards	-6213
▁procedure	-6214
case	-6215
▁Number	-6216
Bl	-6217
▁Which	-6218
▁Small	-6219
▁DC	-6220
▁Works	-6221
▁hardware	-6222
▁significantly	-6223
lines	-6224
▁hook	-6225
▁bless	-6226
▁programme	-6227
▁stretch	-6228
▁Despite	-6229
▁Though	-6230
▁adventure	-6231
unction	-6232
▁Lin	-6233
▁Avenue	-6234
▁solar	-6235
▁criminal	-6236
▁MA	-6237
▁examples	-6238
liance	-6239
▁houses	-6240
▁Ireland	-6241
▁turning	-6242
▁crazy	-6243
▁fitness	-6244
▁Garden	-6245
▁recipes	-6246
LY	-6247
▁confident	-6248
▁Ryan	-6249
utch	-6250
▁Account	-6251
▁Having	-6252
▁cable	-6253
▁carefully	-6254
▁village	-6255
▁procedures	-6256
▁logo	-6257
▁taught	-6258
▁Cond	-6259
▁COVID	-6260
tle	-6261
illy	-6262
▁auto	-6263
▁circumst	-6264
▁patterns	-6265
▁fulf	-6266
▁tro	-6267
ington	-6268
▁illustr	-6269
▁contemporary	-6270
erate	-6271
▁Perform	-6272
▁engage	-6273
▁replacement	-6274
▁browser	-6275
▁ol	-6276
▁noticed	-6277
▁alleged	-6278
etime	-6279
secut	-6280
▁shots	-6281
front	-6282
▁mixture	-6283
▁routine	-6284
▁Oil	-6285
state	-6286
sm	-6287
▁losing	-6288
▁adds	-6289
▁Print	-6290
▁improvement	-6291
▁dim	-6292
▁reporting	-6293
inem	-6294
▁symbol	-6295
▁flavor	-6296
▁hoping	-6297
▁excess	-6298
ificate	-6299
anger	-6300
▁command	-6301
▁ok	-6302
▁funny	-6303
▁expectations	-6304
▁Tay	-6305
▁Drive	-6306
▁Mobile	-6307
▁YouTube	-6308
ca	-6309
▁Rom	-6310
▁Bon	-6311
▁retire	-6312
▁SU	-6313
▁syn	-6314
▁lift	-6315
▁Select	-6316
orgeous	-6317
▁Environment	-6318
▁Dub	-6319
▁rose	-6320
ATE	-6321
lete	-6322
▁Available	-6323
▁tab	-6324
▁bottle	-6325
▁OS	-6326
▁blow	-6327
▁climb	-6328
▁entreprene	-6329
▁Building	-6330
▁severe	-6331
▁pil	-6332
▁tech	-6333
osite	-6334
▁eleg	-6335
▁talks	-6336
▁suspect	-6337
▁Non	-6338
▁hosting	-6339
▁random	-6340
▁grew	-6341
▁sheet	-6342
▁trained	-6343
ether	-6344
▁Russia	-6345
▁Pop	-6346
▁coc	-6347
▁vit	-6348
ossible	-6349
oster	-6350
▁landscape	-6351
▁upper	-6352
▁festival	-6353
▁san	-6354
▁millions	-6355
iversary	-6356
▁Heart	-6357
▁Italy	-6358
enced	-6359
▁foundation	-6360
▁root	-6361
▁authent	-6362
▁clothing	-6363
anna	-6364
▁Country	-6365
comes	-6366
▁publish	-6367
▁Senior	-6368
▁Son	-6369
rad	-6370
pat	-6371
▁chapter	-6372
▁kill	-6373
▁tall	-6374
▁laugh	-6375
hered	-6376
▁reward	-6377
▁eggs	-6378
▁scholars	-6379
ogue	-6380
▁guitar	-6381
iece	-6382
▁FA	-6383
adium	-6384
▁Nick	-6385
rum	-6386
▁champions	-6387
▁machines	-6388
▁dram	-6389
▁Beaut	-6390
▁pink	-6391
So	-6392
inder	-6393
▁figures	-6394
▁arrested	-6395
▁tasks	-6396
▁tested	-6397
ikes	-6398
ampion	-6399
oral	-6400
▁deck	-6401
▁AD	-6402
▁attended	-6403
bal	-6404
▁Senate	-6405
▁hits	-6406
▁Safety	-6407
▁herself	-6408
▁Jersey	-6409
▁PS	-6410
▁vital	-6411
ayer	-6412
iano	-6413
▁input	-6414
▁fishing	-6415
▁Run	-6416
▁Disney	-6417
▁Ha	-6418
▁mal	-6419
▁depth	-6420
▁historical	-6421
▁Division	-6422
▁identity	-6423
host	-6424
ERE	-6425
▁?	-6426
▁integrated	-6427
▁improving	-6428
▁council	-6429
iana	-6430
▁invited	-6431
▁Dog	-6432
▁thin	-6433
▁Shop	-6434
’.	-6435
▁guard	-6436
▁shift	-6437
▁vibr	-6438
▁Ford	-6439
▁anx	-6440
▁ease	-6441
▁weak	-6442
ERS	-6443
▁baking	-6444
▁unf	-6445
▁trends	-6446
iami	-6447
▁Ent	-6448
▁Jenn	-6449
▁Ref	-6450
▁Proper	-6451
▁tonight	-6452
luded	-6453
▁museum	-6454
.’	-6455
rition	-6456
▁wealth	-6457
▁upload	-6458
orders	-6459
▁qualified	-6460
▁breast	-6461
▁rear	-6462
HS	-6463
▁Georgia	-6464
▁smile	-6465
▁authorities	-6466
pret	-6467
▁Writ	-6468
▁Silver	-6469
riends	-6470
▁skill	-6471
▁ordered	-6472
▁Far	-6473
▁wash	-6474
▁Still	-6475
▁Zeal	-6476
▁abuse	-6477
▁Want	-6478
remony	-6479
▁wet	-6480
yers	-6481
▁profit	-6482
▁Professor	-6483
▁airport	-6484
▁mountain	-6485
▁dropped	-6486
▁fuck	-6487
▁entirely	-6488
stone	-6489
enger	-6490
▁carbon	-6491
▁instance	-6492
▁transportation	-6493
▁bags	-6494
forcement	-6495
▁Systems	-6496
▁destination	-6497
▁residential	-6498
▁output	-6499
▁institutions	-6500
▁sick	-6501
▁atmosphere	-6502
rate	-6503
▁Supp	-6504
xx	-6505
▁Sales	-6506
▁Space	-6507
▁Fac	-6508
▁Fre	-6509
RI	-6510
▁hire	-6511
acked	-6512
eller	-6513
▁recy	-6514
icial	-6515
long	-6516
▁sole	-6517
ATION	-6518
LS	-6519
▁EU	-6520
▁offices	-6521
▁managing	-6522
▁photography	-6523
▁thorough	-6524
▁certified	-6525
▁tiny	-6526
▁Email	-6527
▁Members	-6528
▁terror	-6529
hire	-6530
▁Further	-6531
▁accessories	-6532
igned	-6533
▁vend	-6534
PC	-6535
oil	-6536
▁entered	-6537
oval	-6538
▁glad	-6539
▁layer	-6540
ras	-6541
▁Stat	-6542
▁Fed	-6543
▁printed	-6544
▁rating	-6545
▁CO	-6546
▁Ca	-6547
▁entr	-6548
▁guidance	-6549
▁description	-6550
▁kne	-6551
▁Tax	-6552
▁scientific	-6553
▁frequently	-6554
▁failure	-6555
▁taxes	-6556
▁cycle	-6557
aduate	-6558
▁Luc	-6559
▁km	-6560
izza	-6561
▁shower	-6562
▁sac	-6563
▁closely	-6564
▁searching	-6565
▁loans	-6566
▁spin	-6567
agues	-6568
▁medicine	-6569
▁Aff	-6570
▁unable	-6571
▁cooper	-6572
adow	-6573
▁Zealand	-6574
▁rail	-6575
▁religious	-6576
▁Dist	-6577
▁yards	-6578
▁Pract	-6579
▁equal	-6580
▁delay	-6581
▁broadcast	-6582
De	-6583
▁dental	-6584
▁founded	-6585
▁compens	-6586
▁Phone	-6587
▁Finally	-6588
▁assessment	-6589
▁Never	-6590
▁column	-6591
▁Should	-6592
▁bear	-6593
quir	-6594
▁Ball	-6595
osoph	-6596
▁river	-6597
▁situations	-6598
▁typical	-6599
▁rac	-6600
▁seriously	-6601
▁Charles	-6602
▁lad	-6603
▁Looking	-6604
▁DVD	-6605
▁Put	-6606
MP	-6607
?"	-6608
▁awarded	-6609
▁lessons	-6610
▁transition	-6611
▁alongside	-6612
▁workshop	-6613
▁Hou	-6614
▁protein	-6615
▁Very	-6616
▁bonus	-6617
▁cm	-6618
va	-6619
ially	-6620
ircle	-6621
▁operate	-6622
▁unlike	-6623
▁Sat	-6624
▁flexible	-6625
▁fighting	-6626
bi	-6627
▁strategic	-6628
▁Unfortunately	-6629
▁OR	-6630
▁none	-6631
▁Sus	-6632
▁historic	-6633
▁critic	-6634
▁sudden	-6635
ingly	-6636
▁filed	-6637
worth	-6638
▁Foot	-6639
plate	-6640
▁eligible	-6641
Is	-6642
▁Tick	-6643
awn	-6644
▁external	-6645
▁versions	-6646
▁mortgage	-6647
sen	-6648
▁Tech	-6649
ilst	-6650
▁attacks	-6651
irts	-6652
▁PDF	-6653
▁flood	-6654
▁creates	-6655
▁worst	-6656
tain	-6657
▁conver	-6658
umps	-6659
▁believes	-6660
▁networks	-6661
▁younger	-6662
▁distinct	-6663
▁Mountain	-6664
▁vul	-6665
▁juice	-6666
▁vacc	-6667
UL	-6668
onto	-6669
▁Smart	-6670
▁hasn	-6671
erman	-6672
▁listening	-6673
▁Fox	-6674
▁Es	-6675
asters	-6676
▁BE	-6677
▁Mach	-6678
uting	-6679
friendly	-6680
▁Ray	-6681
arrow	-6682
class	-6683
aturally	-6684
▁cups	-6685
▁tracks	-6686
obby	-6687
▁membership	-6688
!"	-6689
▁Term	-6690
▁contribute	-6691
quality	-6692
▁performing	-6693
▁Engineering	-6694
▁proven	-6695
▁faculty	-6696
ati	-6697
nam	-6698
▁streets	-6699
▁bab	-6700
eding	-6701
▁rental	-6702
▁platforms	-6703
you	-6704
uling	-6705
neys	-6706
oker	-6707
▁motion	-6708
▁grass	-6709
▁informed	-6710
One	-6711
▁developers	-6712
▁Bul	-6713
active	-6714
▁availability	-6715
ican	-6716
oured	-6717
▁capture	-6718
II	-6719
With	-6720
▁tip	-6721
▁Ask	-6722
▁hopes	-6723
▁Pacific	-6724
▁Professional	-6725
▁pounds	-6726
▁Fall	-6727
ented	-6728
▁joining	-6729
ounter	-6730
▁elimin	-6731
ucky	-6732
▁lucky	-6733
▁Tele	-6734
▁Ariz	-6735
▁)	-6736
▁soph	-6737
▁cos	-6738
▁surprised	-6739
▁Broad	-6740
▁letters	-6741
▁Northern	-6742
▁recording	-6743
▁meals	-6744
do	-6745
▁risks	-6746
▁wra	-6747
▁savings	-6748
▁Easy	-6749
amps	-6750
▁diss	-6751
▁facilit	-6752
▁Leg	-6753
▁obl	-6754
agon	-6755
aze	-6756
star	-6757
▁infect	-6758
inos	-6759
▁Field	-6760
At	-6761
earing	-6762
▁Miami	-6763
▁choosing	-6764
nic	-6765
car	-6766
▁papers	-6767
▁Lind	-6768
▁SC	-6769
▁liquid	-6770
ashed	-6771
▁Event	-6772
▁Ram	-6773
▁suggested	-6774
▁Harr	-6775
▁submitted	-6776
Fi	-6777
▁Kent	-6778
▁Phys	-6779
▁banks	-6780
aping	-6781
▁decade	-6782
▁privacy	-6783
To	-6784
▁blend	-6785
elry	-6786
▁anticip	-6787
▁ille	-6788
▁Braz	-6789
▁arg	-6790
▁PA	-6791
▁kit	-6792
bury	-6793
▁tournament	-6794
▁LLC	-6795
▁hurt	-6796
▁charm	-6797
pons	-6798
▁rein	-6799
uine	-6800
▁jun	-6801
▁regulations	-6802
▁relief	-6803
born	-6804
▁liked	-6805
▁engagement	-6806
▁Mom	-6807
▁west	-6808
▁hate	-6809
▁Stock	-6810
▁shops	-6811
▁inch	-6812
▁consequ	-6813
▁drawing	-6814
▁Taylor	-6815
▁believed	-6816
)|	-6817
Read	-6818
▁organized	-6819
▁tank	-6820
▁Come	-6821
▁filter	-6822
entle	-6823
▁gorgeous	-6824
▁reputation	-6825
▁negoti	-6826
▁sight	-6827
▁hall	-6828
▁circumstances	-6829
rell	-6830
foot	-6831
▁extract	-6832
▁belief	-6833
ba	-6834
▁Kat	-6835
▁quote	-6836
▁Cut	-6837
▁exhibition	-6838
▁empt	-6839
▁soil	-6840
▁pulled	-6841
▁justice	-6842
▁legs	-6843
▁capable	-6844
bing	-6845
ographic	-6846
▁Source	-6847
▁bat	-6848
▁Sea	-6849
▁mic	-6850
▁immediate	-6851
▁proceed	-6852
Le	-6853
athan	-6854
▁terr	-6855
▁crucial	-6856
▁Order	-6857
odd	-6858
▁monitoring	-6859
▁arrive	-6860
days	-6861
▁LED	-6862
▁Continue	-6863
▁ads	-6864
▁:)	-6865
uter	-6866
▁Think	-6867
▁sky	-6868
▁Credit	-6869
▁Bible	-6870
▁Po	-6871
ava	-6872
▁stir	-6873
▁garage	-6874
zer	-6875
▁portfolio	-6876
ulf	-6877
▁Arab	-6878
▁moves	-6879
law	-6880
▁Cab	-6881
▁increases	-6882
pes	-6883
uis	-6884
cknow	-6885
▁faces	-6886
▁Radio	-6887
▁counsel	-6888
rency	-6889
ura	-6890
▁aside	-6891
▁domain	-6892
▁planet	-6893
▁linked	-6894
illiant	-6895
arters	-6896
▁listing	-6897
▁attached	-6898
esides	-6899
ppy	-6900
▁injured	-6901
▁guidelines	-6902
▁interface	-6903
▁Ms	-6904
▁enjoying	-6905
▁directed	-6906
▁technique	-6907
▁iPad	-6908
▁defend	-6909
▁Conf	-6910
faction	-6911
▁volunteers	-6912
▁LA	-6913
▁penal	-6914
bles	-6915
▁treatments	-6916
sey	-6917
▁hospit	-6918
▁Mir	-6919
▁concert	-6920
▁Happy	-6921
▁relatively	-6922
▁spark	-6923
▁manual	-6924
▁contrast	-6925
▁hosted	-6926
omy	-6927
▁Ron	-6928
▁promise	-6929
▁Republican	-6930
▁adm	-6931
onym	-6932
Se	-6933
▁Bed	-6934
▁normally	-6935
ta	-6936
▁warn	-6937
▁authors	-6938
▁memories	-6939
resents	-6940
ardens	-6941
▁vast	-6942
▁estimated	-6943
hot	-6944
Ad	-6945
▁Jac	-6946
▁dent	-6947
▁Insurance	-6948
▁Ur	-6949
▁Pow	-6950
bar	-6951
▁Pak	-6952
▁spoke	-6953
▁ast	-6954
▁execut	-6955
▁organis	-6956
.'	-6957
lusion	-6958
▁equipped	-6959
rowse	-6960
▁firms	-6961
▁buck	-6962
▁pin	-6963
aints	-6964
▁rice	-6965
▁mm	-6966
▁dust	-6967
▁discl	-6968
▁Remember	-6969
icit	-6970
▁Asian	-6971
▁dreams	-6972
▁arms	-6973
▁urban	-6974
▁trick	-6975
uration	-6976
▁chose	-6977
▁Conc	-6978
▁depress	-6979
eling	-6980
ensity	-6981
▁Being	-6982
▁portion	-6983
▁agents	-6984
▁objects	-6985
▁Justice	-6986
iger	-6987
▁Brad	-6988
By	-6989
▁continuing	-6990
▁illness	-6991
%.	-6992
▁trig	-6993
ogether	-6994
rich	-6995
FA	-6996
▁border	-6997
▁acid	-6998
▁phase	-6999
▁matches	-7000
asant	-7001
oty	-7002
▁index	-7003
▁prove	-7004
▁pitch	-7005
▁Fact	-7006
▁Carl	-7007
▁visited	-7008
▁drinking	-7009
▁Line	-7010
▁breath	-7011
▁refund	-7012
▁newly	-7013
ults	-7014
▁dynamic	-7015
▁Brazil	-7016
▁Iran	-7017
▁passing	-7018
▁chances	-7019
Pl	-7020
▁consistent	-7021
amber	-7022
▁lapt	-7023
holders	-7024
▁Student	-7025
But	-7026
▁storm	-7027
▁fasc	-7028
▁pleasure	-7029
SC	-7030
▁Las	-7031
▁finance	-7032
▁Airport	-7033
iki	-7034
▁approval	-7035
▁Houston	-7036
rm	-7037
▁Arizona	-7038
▁proof	-7039
▁Medicine	-7040
▁Quality	-7041
▁Officer	-7042
▁Living	-7043
▁Give	-7044
▁Welcome	-7045
▁suc	-7046
▁superv	-7047
▁Personal	-7048
▁exposure	-7049
ership	-7050
uclear	-7051
▁mand	-7052
▁forever	-7053
▁facts	-7054
▁mile	-7055
▁fairly	-7056
inois	-7057
▁gallery	-7058
▁roles	-7059
▁seed	-7060
▁ultimate	-7061
▁Ide	-7062
▁coordin	-7063
▁Estate	-7064
site	-7065
▁Season	-7066
OO	-7067
▁dealing	-7068
▁id	-7069
▁ceremony	-7070
▁evol	-7071
▁Standard	-7072
▁represents	-7073
ja	-7074
▁formed	-7075
▁Oak	-7076
annels	-7077
▁gaming	-7078
▁zone	-7079
adel	-7080
GA	-7081
▁attractive	-7082
alle	-7083
▁Mill	-7084
▁division	-7085
▁Site	-7086
▁Cru	-7087
Americ	-7088
▁collected	-7089
▁teasp	-7090
▁Therefore	-7091
▁Army	-7092
▁holidays	-7093
phy	-7094
stal	-7095
▁hat	-7096
ih	-7097
▁Webs	-7098
ultural	-7099
▁sending	-7100
▁recommendations	-7101
▁presents	-7102
▁smell	-7103
▁flash	-7104
▁discussed	-7105
▁saving	-7106
▁legislation	-7107
▁industries	-7108
▁permanent	-7109
▁Choose	-7110
aste	-7111
▁Kenn	-7112
▁Again	-7113
▁stim	-7114
▁Kevin	-7115
▁Sav	-7116
▁lawyer	-7117
▁constit	-7118
▁capabilities	-7119
▁vulner	-7120
▁ensuring	-7121
▁Prom	-7122
▁heads	-7123
▁downtown	-7124
anes	-7125
bro	-7126
▁phones	-7127
▁stake	-7128
EA	-7129
▁possibility	-7130
ffered	-7131
▁boxes	-7132
▁Experience	-7133
▁porn	-7134
whel	-7135
▁cookies	-7136
inson	-7137
acon	-7138
▁hidden	-7139
▁Natural	-7140
▁Administration	-7141
▁Express	-7142
▁theory	-7143
cers	-7144
▁GM	-7145
▁pharm	-7146
▁acknow	-7147
▁finds	-7148
▁pra	-7149
respond	-7150
▁Brian	-7151
▁suggestions	-7152
▁scheme	-7153
aper	-7154
▁implementation	-7155
▁debate	-7156
boy	-7157
▁susp	-7158
rible	-7159
▁Ros	-7160
▁tub	-7161
hell	-7162
ione	-7163
▁priority	-7164
▁Ju	-7165
▁reader	-7166
iking	-7167
anny	-7168
▁realized	-7169
▁trib	-7170
acious	-7171
▁hur	-7172
▁garlic	-7173
▁($	-7174
▁Queen	-7175
▁Rod	-7176
▁liber	-7177
wear	-7178
allas	-7179
ulpt	-7180
▁recognize	-7181
▁reform	-7182
▁instrument	-7183
▁Meanwhile	-7184
▁MO	-7185
▁mut	-7186
▁butt	-7187
HA	-7188
amsung	-7189
▁packages	-7190
▁Prime	-7191
▁loving	-7192
▁||	-7193
RS	-7194
▁travell	-7195
missions	-7196
anned	-7197
▁Vers	-7198
▁Hollywood	-7199
zes	-7200
▁bodies	-7201
▁mainly	-7202
lessly	-7203
▁Dun	-7204
ingu	-7205
▁Create	-7206
▁USB	-7207
osc	-7208
▁personally	-7209
▁categories	-7210
▁Case	-7211
▁ancient	-7212
esy	-7213
CT	-7214
▁posting	-7215
izer	-7216
▁Secretary	-7217
▁Chall	-7218
Sc	-7219
▁Ba	-7220
▁tiss	-7221
▁communications	-7222
▁Emer	-7223
▁Clin	-7224
▁hole	-7225
▁incredibly	-7226
▁east	-7227
▁Stay	-7228
▁upgrade	-7229
urse	-7230
▁walked	-7231
da	-7232
▁vari	-7233
Book	-7234
▁Learning	-7235
phones	-7236
▁permission	-7237
▁bars	-7238
▁Anal	-7239
▁Own	-7240
That	-7241
▁Bang	-7242
aron	-7243
▁exec	-7244
▁bench	-7245
▁bridge	-7246
▁Toronto	-7247
page	-7248
▁CN	-7249
▁Hold	-7250
uls	-7251
▁tradition	-7252
tw	-7253
▁Policy	-7254
▁forth	-7255
▁Jr	-7256
ounce	-7257
parent	-7258
▁solve	-7259
ainless	-7260
▁giant	-7261
▁magic	-7262
▁fifth	-7263
▁claimed	-7264
▁celebration	-7265
season	-7266
▁bare	-7267
▁Film	-7268
▁Isl	-7269
iti	-7270
ials	-7271
▁Cand	-7272
▁orange	-7273
▁Yet	-7274
▁Cro	-7275
odge	-7276
▁doctors	-7277
then	-7278
CD	-7279
▁prospect	-7280
▁Software	-7281
aters	-7282
▁rum	-7283
▁basketball	-7284
▁slowly	-7285
▁venue	-7286
burgh	-7287
uster	-7288
▁calendar	-7289
▁raw	-7290
▁MD	-7291
RL	-7292
▁copyright	-7293
▁programming	-7294
▁king	-7295
▁substant	-7296
▁cuts	-7297
onna	-7298
▁explains	-7299
▁tooth	-7300
▁buyers	-7301
▁somewhere	-7302
▁Level	-7303
isa	-7304
▁generate	-7305
▁victims	-7306
▁proposal	-7307
▁hotels	-7308
▁Irish	-7309
▁absor	-7310
▁embr	-7311
▁clar	-7312
▁NFL	-7313
▁handling	-7314
▁suffering	-7315
▁Stan	-7316
▁desired	-7317
▁cotton	-7318
▁Illinois	-7319
▁Catholic	-7320
▁drinks	-7321
▁Additionally	-7322
▁seasons	-7323
▁achieved	-7324
▁titles	-7325
▁marked	-7326
level	-7327
▁marks	-7328
▁poet	-7329
▁habit	-7330
▁Joseph	-7331
▁swimming	-7332
▁Studies	-7333
▁purchasing	-7334
▁singer	-7335
▁Sep	-7336
▁feelings	-7337
▁replaced	-7338
bridge	-7339
▁Vegas	-7340
▁insight	-7341
▁manufacturers	-7342
Tr	-7343
▁expressed	-7344
▁Capital	-7345
▁volunteer	-7346
▁split	-7347
▁Story	-7348
igate	-7349
▁initiative	-7350
▁merch	-7351
▁requests	-7352
▁Agency	-7353
▁Liber	-7354
▁publication	-7355
▁vegetables	-7356
▁fest	-7357
▁saved	-7358
VER	-7359
▁spots	-7360
▁Consult	-7361
▁tie	-7362
▁Tool	-7363
▁Would	-7364
▁impossible	-7365
▁specialist	-7366
regon	-7367
▁compat	-7368
▁err	-7369
▁Auto	-7370
▁broke	-7371
▁combine	-7372
▁Save	-7373
▁Produ	-7374
▁murder	-7375
▁Dar	-7376
▁pit	-7377
▁stuck	-7378
▁yard	-7379
▁announcement	-7380
stra	-7381
AA	-7382
stream	-7383
▁architecture	-7384
des	-7385
▁lets	-7386
ylvan	-7387
nesota	-7388
imize	-7389
▁enables	-7390
▁gym	-7391
▁publ	-7392
▁meets	-7393
▁causing	-7394
▁Motor	-7395
olis	-7396
▁expansion	-7397
▁extension	-7398
▁Bell	-7399
▁destroy	-7400
▁exceptional	-7401
inton	-7402
▁Autom	-7403
▁consultation	-7404
▁accomplish	-7405
▁enterprise	-7406
▁actor	-7407
▁Mix	-7408
▁surprising	-7409
▁muscle	-7410
▁magn	-7411
▁describe	-7412
▁noise	-7413
▁talked	-7414
ns	-7415
▁printing	-7416
▁ultimately	-7417
aska	-7418
▁heav	-7419
eah	-7420
▁pand	-7421
▁Kids	-7422
ologist	-7423
▁Mess	-7424
▁pace	-7425
▁encouraged	-7426
▁enem	-7427
▁Material	-7428
▁remark	-7429
▁engaged	-7430
▁Pu	-7431
▁reducing	-7432
▁DI	-7433
run	-7434
iot	-7435
▁Location	-7436
bell	-7437
▁mood	-7438
▁enroll	-7439
▁Ira	-7440
aid	-7441
▁Short	-7442
▁Brook	-7443
App	-7444
zing	-7445
▁Pen	-7446
apore	-7447
wan	-7448
▁preparation	-7449
▁Table	-7450
▁Recent	-7451
▁default	-7452
▁covering	-7453
▁Labor	-7454
▁classroom	-7455
▁widely	-7456
▁scenes	-7457
▁Mov	-7458
▁pricing	-7459
▁gay	-7460
▁Camer	-7461
▁rig	-7462
▁hell	-7463
▁Pakistan	-7464
▁wins	-7465
esh	-7466
▁massage	-7467
▁Spain	-7468
▁blank	-7469
▁seeds	-7470
▁Forest	-7471
▁electrical	-7472
▁unw	-7473
▁Memorial	-7474
▁blocks	-7475
rage	-7476
▁recognition	-7477
▁writers	-7478
gypt	-7479
▁breaking	-7480
▁packaging	-7481
▁managers	-7482
▁formal	-7483
▁pill	-7484
bel	-7485
lements	-7486
▁interactive	-7487
▁anyway	-7488
▁agric	-7489
och	-7490
▁Davis	-7491
▁Theatre	-7492
▁reasonable	-7493
▁Studio	-7494
▁compr	-7495
▁dishes	-7496
▁Ess	-7497
▁gall	-7498
▁Eric	-7499
▁Square	-7500
▁constant	-7501
▁Rs	-7502
▁traveling	-7503
▁birds	-7504
▁genuine	-7505
▁seats	-7506
ilton	-7507
nda	-7508
▁recover	-7509
▁consists	-7510
▁pic	-7511
▁Toy	-7512
▁performances	-7513
▁mere	-7514
▁slic	-7515
▁concrete	-7516
▁acting	-7517
▁empty	-7518
▁lists	-7519
▁nights	-7520
▁Gallery	-7521
▁Adam	-7522
▁Pin	-7523
▁brilliant	-7524
▁overwhel	-7525
wich	-7526
▁resulting	-7527
abetes	-7528
alo	-7529
ateful	-7530
EP	-7531
▁Force	-7532
ludes	-7533
RC	-7534
▁suggests	-7535
▁experiment	-7536
ghan	-7537
▁Talk	-7538
▁Band	-7539
▁clicking	-7540
▁resistance	-7541
▁staying	-7542
cons	-7543
otted	-7544
▁Fred	-7545
▁bow	-7546
▁Seattle	-7547
▁Following	-7548
▁spiritual	-7549
▁professor	-7550
▁increasingly	-7551
)||	-7552
books	-7553
▁forecast	-7554
▁CB	-7555
▁Things	-7556
▁producing	-7557
usive	-7558
▁Gro	-7559
being	-7560
▁pride	-7561
▁dad	-7562
▁franch	-7563
ifies	-7564
▁Solutions	-7565
▁Ter	-7566
ifer	-7567
uct	-7568
▁duty	-7569
▁bunch	-7570
child	-7571
▁Treat	-7572
▁Map	-7573
axy	-7574
▁Jord	-7575
▁vir	-7576
▁incorpor	-7577
▁Mrs	-7578
▁scan	-7579
▁Member	-7580
▁closing	-7581
▁everywhere	-7582
▁basically	-7583
▁Annual	-7584
▁Ly	-7585
▁enthusi	-7586
▁Dam	-7587
▁authority	-7588
▁interpret	-7589
▁Minnesota	-7590
▁aims	-7591
▁anniversary	-7592
heast	-7593
▁wireless	-7594
lers	-7595
▁succeed	-7596
▁Diego	-7597
▁spray	-7598
▁legend	-7599
▁graphics	-7600
▁centers	-7601
▁compliance	-7602
▁packed	-7603
▁Spirit	-7604
▁healing	-7605
▁talented	-7606
▁expenses	-7607
▁Model	-7608
▁lemon	-7609
ashes	-7610
alse	-7611
rome	-7612
▁Mah	-7613
▁Lew	-7614
▁Pict	-7615
▁riding	-7616
▁prize	-7617
▁trips	-7618
▁FL	-7619
▁Partners	-7620
ding	-7621
▁OK	-7622
▁rug	-7623
▁connections	-7624
ulum	-7625
▁slot	-7626
▁Cover	-7627
▁Interest	-7628
▁obtained	-7629
▁indeed	-7630
▁Cloud	-7631
utional	-7632
▁Roman	-7633
▁assum	-7634
▁involves	-7635
▁Kingdom	-7636
▁Limited	-7637
▁watched	-7638
▁vice	-7639
vas	-7640
▁displayed	-7641
una	-7642
▁founder	-7643
▁narr	-7644
▁struggle	-7645
▁whenever	-7646
ylvania	-7647
▁Paper	-7648
▁differences	-7649
▁Dallas	-7650
’,	-7651
▁Shipping	-7652
proof	-7653
▁Swed	-7654
rated	-7655
Press	-7656
▁unex	-7657
▁apparently	-7658
▁Age	-7659
▁Magazine	-7660
stein	-7661
▁Dream	-7662
pends	-7663
▁Oregon	-7664
▁hel	-7665
▁Dark	-7666
▁Based	-7667
▁Golden	-7668
▁Perhaps	-7669
ureau	-7670
▁Everyone	-7671
▁acts	-7672
▁Rand	-7673
▁attrib	-7674
▁driven	-7675
▁Samsung	-7676
inding	-7677
lder	-7678
▁Change	-7679
▁Base	-7680
▁opens	-7681
abeth	-7682
▁introduction	-7683
▁Eastern	-7684
▁designers	-7685
▁channels	-7686
▁complim	-7687
▁headed	-7688
ls	-7689
▁Working	-7690
▁officially	-7691
leep	-7692
▁chopped	-7693
greg	-7694
▁Rub	-7695
▁Collection	-7696
▁Sound	-7697
▁flo	-7698
▁Anth	-7699
▁gender	-7700
▁pocket	-7701
▁Customer	-7702
▁improvements	-7703
▁CP	-7704
▁primarily	-7705
▁Mother	-7706
▁CL	-7707
Sp	-7708
▁Ap	-7709
▁Total	-7710
▁mob	-7711
▁shouldn	-7712
▁ending	-7713
▁Transport	-7714
▁Books	-7715
▁returning	-7716
▁Products	-7717
▁politics	-7718
AB	-7719
▁boss	-7720
▁honey	-7721
▁inner	-7722
AND	-7723
▁alive	-7724
▁narrow	-7725
▁coat	-7726
▁Common	-7727
▁vintage	-7728
▁delivering	-7729
sters	-7730
▁fing	-7731
▁Spec	-7732
dri	-7733
▁sensitive	-7734
▁Month	-7735
issions	-7736
▁precise	-7737
iders	-7738
▁guaranteed	-7739
▁acquis	-7740
▁SS	-7741
▁Austin	-7742
▁defined	-7743
▁highlights	-7744
▁Station	-7745
▁charity	-7746
▁Steel	-7747
▁authentic	-7748
▁fits	-7749
▁Miller	-7750
▁percentage	-7751
▁shell	-7752
▁Action	-7753
Fr	-7754
▁Jay	-7755
▁protest	-7756
owa	-7757
▁booking	-7758
raid	-7759
▁plot	-7760
▁Iraq	-7761
▁singles	-7762
su	-7763
▁Bad	-7764
▁Sym	-7765
atics	-7766
oned	-7767
Cont	-7768
bits	-7769
ronics	-7770
▁maintaining	-7771
▁falling	-7772
▁Return	-7773
scribe	-7774
▁podcast	-7775
making	-7776
▁analyst	-7777
▁Dead	-7778
▁suffered	-7779
▁Egypt	-7780
▁unus	-7781
ailing	-7782
▁involving	-7783
▁filling	-7784
▁resident	-7785
onut	-7786
▁assistant	-7787
▁scientists	-7788
▁Ven	-7789
▁Josh	-7790
▁elev	-7791
wart	-7792
raction	-7793
▁Guard	-7794
▁recre	-7795
▁Bru	-7796
▁DO	-7797
oices	-7798
eler	-7799
▁trim	-7800
inating	-7801
▁heading	-7802
▁Among	-7803
▁Jewish	-7804
▁Corporation	-7805
▁tape	-7806
acher	-7807
▁potentially	-7808
MC	-7809
▁strike	-7810
osophy	-7811
▁carrying	-7812
▁Nic	-7813
ockey	-7814
▁opinions	-7815
▁Pur	-7816
▁Stephen	-7817
riers	-7818
▁naturally	-7819
▁personality	-7820
▁Capt	-7821
▁casual	-7822
▁bills	-7823
▁tired	-7824
ambling	-7825
▁gentle	-7826
▁obviously	-7827
athy	-7828
▁preparing	-7829
▁licensed	-7830
▁NC	-7831
▁consumption	-7832
▁crash	-7833
iac	-7834
arliam	-7835
▁renov	-7836
▁racing	-7837
ila	-7838
pson	-7839
▁lin	-7840
▁intent	-7841
▁Trail	-7842
coin	-7843
▁speaker	-7844
anchester	-7845
▁stronger	-7846
▁	-7847
e	-7848
t	-7849
a	-7850
o	-7851
i	-7852
n	-7853
s	-7854
r	-7855
h	-7856
l	-7857
d	-7858
c	-7859
u	-7860
m	-7861
p	-7862
g	-7863
f	-7864
y	-7865
w	-7866
b	-7867
.	-7868
v	-7869
,	-7870
k	-7871
T	-7872
S	-7873
I	-7874
A	-7875
-	-7876
C	-7877
0	-7878
M	-7879
1	-7880
P	-7881
x	-7882
B	-7883
2	-7884
W	-7885
D	-7886
R	-7887
E	-7888
H	-7889
F	-7890
’	-7891
L	-7892
N	-7893
O	-7894
:	-7895
'	-7896
G	-7897
j	-7898
)	-7899
(	-7900
z	-7901
3	-7902
5	-7903
q	-7904
U	-7905
4	-7906
"	-7907
9	-7908
J	-7909
8	-7910
6	-7911
V	-7912
Y	-7913
K	-7914
|	-7915
7	-7916
!	-7917
/	-7918
“	-7919
”	-7920
?	-7921
–	-7922
;	-7923
&	-7924
$	-7925
Q	-7926
%	-7927
—	-7928
X	-7929
Z	-7930
*	-7931
